{
  "version": "1.0",
  "truncation": {
    "direction": "Right",
    "max_length": 512,
    "strategy": "LongestFirst",
    "stride": 0
  },
  "padding": {
    "strategy": {
      "Fixed": 512
    },
    "direction": "Right",
    "pad_to_multiple_of": null,
    "pad_id": 51202,
    "pad_type_id": 0,
    "pad_token": "<|eot_id|>"
  },
  "added_tokens": [
    {
      "id": 0,
      "content": "<s>",
      "single_word": false,
      "lstrip": false,
      "rstrip": false,
      "normalized": false,
      "special": true
    },
    {
      "id": 1,
      "content": "</s>",
      "single_word": false,
      "lstrip": false,
      "rstrip": false,
      "normalized": false,
      "special": true
    },
    {
      "id": 2,
      "content": "<unk>",
      "single_word": false,
      "lstrip": false,
      "rstrip": false,
      "normalized": false,
      "special": true
    },
    {
      "id": 51200,
      "content": "<|start_header_id|>",
      "single_word": false,
      "lstrip": false,
      "rstrip": false,
      "normalized": false,
      "special": true
    },
    {
      "id": 51201,
      "content": "<|end_header_id|>",
      "single_word": false,
      "lstrip": false,
      "rstrip": false,
      "normalized": false,
      "special": true
    },
    {
      "id": 51202,
      "content": "<|eot_id|>",
      "single_word": false,
      "lstrip": false,
      "rstrip": false,
      "normalized": false,
      "special": true
    }
  ],
  "normalizer": {
    "type": "Sequence",
    "normalizers": [
      {
        "type": "NFKC"
      }
    ]
  },
  "pre_tokenizer": {
    "type": "ByteLevel",
    "add_prefix_space": true,
    "trim_offsets": true,
    "use_regex": true
  },
  "post_processor": {
    "type": "TemplateProcessing",
    "single": [
      {
        "SpecialToken": {
          "id": "<s>",
          "type_id": 0
        }
      },
      {
        "Sequence": {
          "id": "A",
          "type_id": 0
        }
      }
    ],
    "pair": [
      {
        "SpecialToken": {
          "id": "<s>",
          "type_id": 0
        }
      },
      {
        "Sequence": {
          "id": "A",
          "type_id": 0
        }
      },
      {
        "SpecialToken": {
          "id": "<s>",
          "type_id": 1
        }
      },
      {
        "Sequence": {
          "id": "B",
          "type_id": 1
        }
      }
    ],
    "special_tokens": {
      "<s>": {
        "id": "<s>",
        "ids": [
          0
        ],
        "tokens": [
          "<s>"
        ]
      }
    }
  },
  "decoder": {
    "type": "ByteLevel",
    "add_prefix_space": true,
    "trim_offsets": true,
    "use_regex": true
  },
  "model": {
    "type": "BPE",
    "dropout": null,
    "unk_token": null,
    "continuing_subword_prefix": null,
    "end_of_word_suffix": null,
    "fuse_unk": false,
    "byte_fallback": true,
    "ignore_merges": false,
    "vocab": {
      "<s>": 0,
      "</s>": 1,
      "<unk>": 2,
      "!": 3,
      "\"": 4,
      "#": 5,
      "$": 6,
      "%": 7,
      "&": 8,
      "'": 9,
      "(": 10,
      ")": 11,
      "*": 12,
      "+": 13,
      ",": 14,
      "-": 15,
      ".": 16,
      "/": 17,
      "0": 18,
      "1": 19,
      "2": 20,
      "3": 21,
      "4": 22,
      "5": 23,
      "6": 24,
      "7": 25,
      "8": 26,
      "9": 27,
      ":": 28,
      ";": 29,
      "<": 30,
      "=": 31,
      ">": 32,
      "?": 33,
      "@": 34,
      "A": 35,
      "B": 36,
      "C": 37,
      "D": 38,
      "E": 39,
      "F": 40,
      "G": 41,
      "H": 42,
      "I": 43,
      "J": 44,
      "K": 45,
      "L": 46,
      "M": 47,
      "N": 48,
      "O": 49,
      "P": 50,
      "Q": 51,
      "R": 52,
      "S": 53,
      "T": 54,
      "U": 55,
      "V": 56,
      "W": 57,
      "X": 58,
      "Y": 59,
      "Z": 60,
      "[": 61,
      "\\": 62,
      "]": 63,
      "^": 64,
      "_": 65,
      "`": 66,
      "a": 67,
      "b": 68,
      "c": 69,
      "d": 70,
      "e": 71,
      "f": 72,
      "g": 73,
      "h": 74,
      "i": 75,
      "j": 76,
      "k": 77,
      "l": 78,
      "m": 79,
      "n": 80,
      "o": 81,
      "p": 82,
      "q": 83,
      "r": 84,
      "s": 85,
      "t": 86,
      "u": 87,
      "v": 88,
      "w": 89,
      "x": 90,
      "y": 91,
      "z": 92,
      "{": 93,
      "|": 94,
      "}": 95,
      "~": 96,
      "¡": 97,
      "¢": 98,
      "£": 99,
      "¤": 100,
      "¥": 101,
      "¦": 102,
      "§": 103,
      "¨": 104,
      "©": 105,
      "ª": 106,
      "«": 107,
      "¬": 108,
      "®": 109,
      "¯": 110,
      "°": 111,
      "±": 112,
      "²": 113,
      "³": 114,
      "´": 115,
      "µ": 116,
      "¶": 117,
      "·": 118,
      "¸": 119,
      "¹": 120,
      "º": 121,
      "»": 122,
      "¼": 123,
      "½": 124,
      "¾": 125,
      "¿": 126,
      "Â": 127,
      "Ã": 128,
      "Ä": 129,
      "Å": 130,
      "Æ": 131,
      "Ç": 132,
      "È": 133,
      "É": 134,
      "Ê": 135,
      "Ë": 136,
      "Ì": 137,
      "Í": 138,
      "Î": 139,
      "Ï": 140,
      "Ð": 141,
      "Ñ": 142,
      "Ò": 143,
      "Ó": 144,
      "Ô": 145,
      "Õ": 146,
      "Ö": 147,
      "×": 148,
      "Ø": 149,
      "Ù": 150,
      "Ú": 151,
      "Û": 152,
      "Ü": 153,
      "Ý": 154,
      "Þ": 155,
      "ß": 156,
      "à": 157,
      "á": 158,
      "â": 159,
      "ã": 160,
      "ä": 161,
      "å": 162,
      "æ": 163,
      "ç": 164,
      "è": 165,
      "é": 166,
      "ê": 167,
      "ë": 168,
      "ì": 169,
      "í": 170,
      "î": 171,
      "ï": 172,
      "ð": 173,
      "ñ": 174,
      "ò": 175,
      "ó": 176,
      "ô": 177,
      "Ā": 178,
      "ā": 179,
      "Ă": 180,
      "ă": 181,
      "Ą": 182,
      "ą": 183,
      "Ć": 184,
      "ć": 185,
      "Ĉ": 186,
      "ĉ": 187,
      "Ċ": 188,
      "ċ": 189,
      "Č": 190,
      "Ď": 191,
      "ď": 192,
      "Đ": 193,
      "đ": 194,
      "Ē": 195,
      "ē": 196,
      "Ĕ": 197,
      "ĕ": 198,
      "Ė": 199,
      "ė": 200,
      "Ę": 201,
      "ę": 202,
      "Ě": 203,
      "ě": 204,
      "Ĝ": 205,
      "ĝ": 206,
      "Ğ": 207,
      "ğ": 208,
      "Ġ": 209,
      "ġ": 210,
      "Ģ": 211,
      "ģ": 212,
      "Ĥ": 213,
      "ĥ": 214,
      "Ħ": 215,
      "ħ": 216,
      "Ĩ": 217,
      "ĩ": 218,
      "Ī": 219,
      "ī": 220,
      "Ĭ": 221,
      "ĭ": 222,
      "Į": 223,
      "į": 224,
      "İ": 225,
      "ı": 226,
      "Ĳ": 227,
      "ĳ": 228,
      "Ĵ": 229,
      "ĵ": 230,
      "Ķ": 231,
      "ķ": 232,
      "ĸ": 233,
      "Ĺ": 234,
      "ĺ": 235,
      "Ļ": 236,
      "ļ": 237,
      "Ľ": 238,
      "ľ": 239,
      "Ŀ": 240,
      "ŀ": 241,
      "Ł": 242,
      "ł": 243,
      "Ń": 244,
      "Ġa": 245,
      "in": 246,
      "ĠĠ": 247,
      "er": 248,
      "on": 249,
      "Ġt": 250,
      "Ġd": 251,
      "Ġs": 252,
      "re": 253,
      "Ġc": 254,
      "en": 255,
      "Ġp": 256,
      "at": 257,
      "he": 258,
      "or": 259,
      "an": 260,
      "es": 261,
      "it": 262,
      "al": 263,
      "is": 264,
      "el": 265,
      "Ġl": 266,
      "ic": 267,
      "ar": 268,
      "Ġm": 269,
      "Ġf": 270,
      "ĠĠĠĠ": 271,
      "Ġin": 272,
      "ion": 273,
      "Ġthe": 274,
      "Ġo": 275,
      "il": 276,
      "ro": 277,
      "ent": 278,
      "Ġe": 279,
      "Ġw": 280,
      "Ġdi": 281,
      "Ġb": 282,
      "Ġan": 283,
      "un": 284,
      "ing": 285,
      "Ġn": 286,
      "ed": 287,
      "ol": 288,
      "et": 289,
      "as": 290,
      "âĢ": 291,
      "om": 292,
      "Ġ0": 293,
      "ou": 294,
      "ra": 295,
      "Ġto": 296,
      "os": 297,
      "Ġand": 298,
      "Ġg": 299,
      "to": 300,
      "Ġh": 301,
      "Ġ1": 302,
      "im": 303,
      "le": 304,
      "am": 305,
      "Ġof": 306,
      "Ġ2": 307,
      "ĠS": 308,
      "ut": 309,
      "ĠC": 310,
      "Ġv": 311,
      "Ġre": 312,
      "la": 313,
      "Ġdel": 314,
      "Ġcon": 315,
      "iv": 316,
      "us": 317,
      "ĠI": 318,
      "ta": 319,
      "Ġal": 320,
      "Ġth": 321,
      "ec": 322,
      "ĠT": 323,
      "ia": 324,
      "ĠA": 325,
      "id": 326,
      "Ġun": 327,
      "qu": 328,
      "âĢĻ": 329,
      "Ġper": 330,
      "ot": 331,
      "io": 332,
      "ig": 333,
      "ĠP": 334,
      "zion": 335,
      "te": 336,
      "ur": 337,
      "Ġy": 338,
      "ess": 339,
      "Ġla": 340,
      "Ġpro": 341,
      "ĠM": 342,
      "ul": 343,
      "Ġr": 344,
      "ĠĠĠ": 345,
      "ac": 346,
      "ĠĠĠĠĠĠĠĠ": 347,
      "Ġst": 348,
      "ti": 349,
      "Ġyou": 350,
      "ter": 351,
      "Ġche": 352,
      "em": 353,
      "Ġfor": 354,
      "Ġil": 355,
      "Ġcom": 356,
      "are": 357,
      "ĠL": 358,
      "ere": 359,
      "Ġqu": 360,
      "ĠD": 361,
      "ch": 362,
      "ag": 363,
      "pp": 364,
      "Ġis": 365,
      "li": 366,
      "ce": 367,
      "ers": 368,
      "ato": 369,
      "ĠB": 370,
      "eg": 371,
      "Ġ3": 372,
      "ad": 373,
      "Ġsu": 374,
      "ir": 375,
      "zione": 376,
      "and": 377,
      "ow": 378,
      "Ġ(": 379,
      "Ġon": 380,
      "res": 381,
      "Ãł": 382,
      "tr": 383,
      "ation": 384,
      "ly": 385,
      "ve": 386,
      "if": 387,
      "ĠF": 388,
      "Ġ5": 389,
      "od": 390,
      "ĠR": 391,
      "ate": 392,
      "Ã¨": 393,
      "oc": 394,
      "iz": 395,
      "est": 396,
      "Ġ4": 397,
      "ith": 398,
      "ale": 399,
      "ĠG": 400,
      "Ġde": 401,
      "ĠâĢ": 402,
      "um": 403,
      "Ġ.": 404,
      "Ġ9": 405,
      "ver": 406,
      "Ġas": 407,
      "ĠE": 408,
      "Ġle": 409,
      "ĠN": 410,
      "Ġ-": 411,
      "Ġbe": 412,
      "ĠĊ": 413,
      "Ġthat": 414,
      "ay": 415,
      "ĠÃ¨": 416,
      "ente": 417,
      "op": 418,
      "ct": 419,
      "th": 420,
      "end": 421,
      "Ġwh": 422,
      "Ġwith": 423,
      "Ġha": 424,
      "ff": 425,
      "og": 426,
      "Ġit": 427,
      "Ġ,": 428,
      "ĠW": 429,
      "za": 430,
      "Ġ8": 431,
      "cc": 432,
      "Ġ6": 433,
      "Ġor": 434,
      "no": 435,
      "ist": 436,
      "ib": 437,
      "ort": 438,
      "Ġ7": 439,
      "Ġi": 440,
      "ab": 441,
      "ĠH": 442,
      "lo": 443,
      "Ġsp": 444,
      "se": 445,
      "ata": 446,
      "Ġat": 447,
      "ono": 448,
      "ost": 449,
      "ie": 450,
      "ip": 451,
      "ore": 452,
      "art": 453,
      "ine": 454,
      "ĠThe": 455,
      "Ġare": 456,
      "ĠĠĠĠĠĠĠ": 457,
      "Ġ\"": 458,
      "Ġ=": 459,
      "ect": 460,
      "ill": 461,
      "per": 462,
      "Ġdella": 463,
      "ud": 464,
      "ano": 465,
      "Ġda": 466,
      "ass": 467,
      "ĠO": 468,
      "Ġne": 469,
      "ke": 470,
      "ica": 471,
      "Ġch": 472,
      "Ġim": 473,
      "st": 474,
      "ĠIn": 475,
      "Ġnel": 476,
      "Ġuna": 477,
      "ile": 478,
      "Ġnon": 479,
      "Ġma": 480,
      "Ġyour": 481,
      "Ġex": 482,
      "all": 483,
      "..": 484,
      "ive": 485,
      "itÃł": 486,
      "Ġsi": 487,
      "enti": 488,
      "ap": 489,
      "Ġad": 490,
      "Ġsc": 491,
      "ati": 492,
      "ant": 493,
      ");": 494,
      "igh": 495,
      "ali": 496,
      "ity": 497,
      "ento": 498,
      "Ġall": 499,
      "Ġcomp": 500,
      "ard": 501,
      "Ġcan": 502,
      "rom": 503,
      "ĠU": 504,
      "ure": 505,
      "ies": 506,
      "ĠV": 507,
      "ma": 508,
      "Ġpr": 509,
      "Ġus": 510,
      "ond": 511,
      "che": 512,
      "ov": 513,
      "Ġpi": 514,
      "ĉĉ": 515,
      "so": 516,
      "Ġhe": 517,
      "Ġse": 518,
      "ue": 519,
      "up": 520,
      "Ġwe": 521,
      "bb": 522,
      "Ġtr": 523,
      "ment": 524,
      "Ġpre": 525,
      "ge": 526,
      "Ġimp": 527,
      "ice": 528,
      "ult": 529,
      "ĠâĢľ": 530,
      "ome": 531,
      "âĢĿ": 532,
      "one": 533,
      "for": 534,
      "ld": 535,
      "ire": 536,
      "ide": 537,
      "oun": 538,
      "Ġ'": 539,
      "ind": 540,
      "lic": 541,
      "Ġnot": 542,
      "Ġthis": 543,
      "Ġ/": 544,
      "ell": 545,
      "ens": 546,
      "av": 547,
      "ial": 548,
      "Ġfrom": 549,
      "ight": 550,
      "Ġdis": 551,
      "Ġtra": 552,
      "--": 553,
      "Ġhave": 554,
      "Ġdei": 555,
      "zioni": 556,
      "Ġsh": 557,
      "ori": 558,
      "ni": 559,
      "ug": 560,
      "ok": 561,
      "enza": 562,
      "Ġapp": 563,
      "ito": 564,
      "azione": 565,
      "our": 566,
      "ico": 567,
      "Ġ)": 568,
      "Ġar": 569,
      "erv": 570,
      "ĠTh": 571,
      "ast": 572,
      "Ġra": 573,
      "ett": 574,
      "Ġby": 575,
      "Ġpos": 576,
      "Ã¹": 577,
      "Ġcons": 578,
      "Ġcont": 579,
      "ĠĠĠĠĠĠĠĠĠĠĠ": 580,
      "ord": 581,
      "ust": 582,
      "ione": 583,
      "Ġ{": 584,
      "ich": 585,
      "du": 586,
      "Ġres": 587,
      "ri": 588,
      "emp": 589,
      "gi": 590,
      "out": 591,
      "Ġes": 592,
      "ame": 593,
      "Ġdal": 594,
      "Ġwill": 595,
      "olo": 596,
      "Ġab": 597,
      "ura": 598,
      "Ġques": 599,
      "Ġpar": 600,
      "Ġdell": 601,
      "Ġ}": 602,
      "Ġlo": 603,
      "Ġpres": 604,
      "ĠpiÃ¹": 605,
      "Ġsono": 606,
      "Ġinc": 607,
      "Ġwas": 608,
      "Ġdo": 609,
      "ub": 610,
      "ite": 611,
      "ici": 612,
      "ĠJ": 613,
      "ime": 614,
      "int": 615,
      "ions": 616,
      "att": 617,
      "Ġinter": 618,
      "Ġcome": 619,
      "ĠâĢĵ": 620,
      "anc": 621,
      "ino": 622,
      "Ġj": 623,
      "ari": 624,
      "Ġcol": 625,
      "ign": 626,
      "ont": 627,
      "nd": 628,
      "ork": 629,
      "na": 630,
      "Ġacc": 631,
      "age": 632,
      "anno": 633,
      "ci": 634,
      "ase": 635,
      "zi": 636,
      "Ġen": 637,
      "Ġris": 638,
      "Ġdelle": 639,
      "Ġk": 640,
      "ne": 641,
      "get": 642,
      "ĠLa": 643,
      "ando": 644,
      "Ġtut": 645,
      "Ġgi": 646,
      "Ġ:": 647,
      "ould": 648,
      "Ġcl": 649,
      "Ġman": 650,
      "amo": 651,
      "Ġpart": 652,
      "ita": 653,
      "form": 654,
      "Ġag": 655,
      "Ġsul": 656,
      "ong": 657,
      "ck": 658,
      "Ġalla": 659,
      "amente": 660,
      "ally": 661,
      "Ġgo": 662,
      "ante": 663,
      "si": 664,
      "ĠIl": 665,
      "Ġav": 666,
      "rit": 667,
      "fer": 668,
      "izz": 669,
      "ans": 670,
      "Ġanche": 671,
      "ep": 672,
      "ear": 673,
      "ini": 674,
      "co": 675,
      "Ġam": 676,
      "ĠY": 677,
      "pr": 678,
      "Ġind": 679,
      "ĠK": 680,
      "ina": 681,
      "ance": 682,
      "Ġme": 683,
      "ĠIt": 684,
      "ene": 685,
      "tem": 686,
      "era": 687,
      "Ġhas": 688,
      "Ġtheir": 689,
      "uto": 690,
      "Ġmod": 691,
      "ys": 692,
      "Ġev": 693,
      "amp": 694,
      "Ġif": 695,
      "Ġso": 696,
      "Ġpers": 697,
      "Ġess": 698,
      "Ġel": 699,
      "Ġatt": 700,
      "Ã²": 701,
      "**": 702,
      "pt": 703,
      "ated": 704,
      "ber": 705,
      "able": 706,
      "ther": 707,
      "Ġstr": 708,
      "Ġout": 709,
      "Ġro": 710,
      "ose": 711,
      "ack": 712,
      "'s": 713,
      "Ġcre": 714,
      "ence": 715,
      "ĠAl": 716,
      "iss": 717,
      "erm": 718,
      "Ġmore": 719,
      "ach": 720,
      "ons": 721,
      "ĠQ": 722,
      "ĠSt": 723,
      "ev": 724,
      "ĠCh": 725,
      "Ġup": 726,
      "urn": 727,
      "pe": 728,
      "ous": 729,
      "tt": 730,
      "Ġco": 731,
      "amento": 732,
      "ents": 733,
      "Ġass": 734,
      "Ġed": 735,
      "Ġĉĉ": 736,
      "Ġthey": 737,
      "ui": 738,
      "ak": 739,
      "ili": 740,
      "Ġbut": 741,
      "ss": 742,
      "Ġprov": 743,
      "Ġreg": 744,
      "ram": 745,
      "Ġour": 746,
      "oro": 747,
      "olog": 748,
      "ations": 749,
      "Ġ*": 750,
      "Ġ<": 751,
      "ero": 752,
      "ble": 753,
      "),": 754,
      "ex": 755,
      "ima": 756,
      "Ġnew": 757,
      "Ġgr": 758,
      "oi": 759,
      "ress": 760,
      "act": 761,
      "Ġpu": 762,
      "Ġgli": 763,
      "Ġposs": 764,
      "ang": 765,
      "Ġfe": 766,
      "iche": 767,
      "ction": 768,
      "und": 769,
      "ole": 770,
      "erc": 771,
      "ĠĠĠĠĠĠĠĠĠĠĠĠĠĠĠĠ": 772,
      "ren": 773,
      "ater": 774,
      "Ġcas": 775,
      "Ġcos": 776,
      "her": 777,
      "Ġinv": 778,
      "ors": 779,
      "ivo": 780,
      "gio": 781,
      "...": 782,
      "Ġli": 783,
      "anti": 784,
      "etto": 785,
      "ary": 786,
      "vers": 787,
      "inc": 788,
      ").": 789,
      "pos": 790,
      "Ġcomm": 791,
      "Ġĉ": 792,
      "Ġwork": 793,
      "mo": 794,
      "Ġrec": 795,
      "Ġserv": 796,
      "Ġ$": 797,
      "ark": 798,
      "Ġpot": 799,
      "Ġint": 800,
      "ef": 801,
      "Ġsta": 802,
      "Ġquel": 803,
      "->": 804,
      "Ġcar": 805,
      "zz": 806,
      "Ã©": 807,
      "esso": 808,
      "Ġimport": 809,
      "ual": 810,
      "itt": 811,
      "Ġsa": 812,
      "uro": 813,
      "Ġone": 814,
      "Ġalso": 815,
      "ical": 816,
      "Ġfin": 817,
      "ition": 818,
      "Ġcor": 819,
      "iva": 820,
      "ific": 821,
      "Ġdes": 822,
      "ĠAn": 823,
      "ĠWh": 824,
      "Ġpla": 825,
      "Ġver": 826,
      "rov": 827,
      "Ġpl": 828,
      "Ġabout": 829,
      "Ġwhich": 830,
      "Ġvis": 831,
      "ace": 832,
      "//": 833,
      "ĠUn": 834,
      "Ġqual": 835,
      "ely": 836,
      "Ġdiff": 837,
      "imo": 838,
      "iti": 839,
      "ree": 840,
      "Ġdec": 841,
      "ener": 842,
      "ĠCom": 843,
      "Ġsec": 844,
      "ĠThis": 845,
      "Ġins": 846,
      "----": 847,
      "Ġquesto": 848,
      "Ġci": 849,
      "Ġsol": 850,
      "ob": 851,
      "ail": 852,
      "Ġric": 853,
      "ĠWe": 854,
      "Ġtime": 855,
      "der": 856,
      "ani": 857,
      "own": 858,
      "Ġany": 859,
      "Ġ#": 860,
      "elf": 861,
      "aus": 862,
      "egli": 863,
      "Ġperson": 864,
      "vel": 865,
      "Ġval": 866,
      "ings": 867,
      "com": 868,
      "Ġai": 869,
      "lud": 870,
      "Ġspec": 871,
      "tre": 872,
      "amb": 873,
      "()": 874,
      "Ġoff": 875,
      "mente": 876,
      "con": 877,
      "Ġvol": 878,
      "Ġessere": 879,
      "Ġleg": 880,
      "Ġget": 881,
      "Ġeff": 882,
      "ĠQu": 883,
      "Ġnella": 884,
      "di": 885,
      "chi": 886,
      "Ġchi": 887,
      "Ġfun": 888,
      "ana": 889,
      "ink": 890,
      "let": 891,
      "Ġgu": 892,
      "\",": 893,
      "ĠĠĠĠĠĠĠĠĠĠĠĠĠĠĠ": 894,
      "ild": 895,
      "ret": 896,
      "Ġcap": 897,
      "tain": 898,
      "Ġbu": 899,
      "Ġmet": 900,
      "gh": 901,
      "Ġneed": 902,
      "ĠÂ": 903,
      "ER": 904,
      "ze": 905,
      "ugh": 906,
      "Ġadd": 907,
      "ario": 908,
      "Ġthem": 909,
      "Ġalle": 910,
      "les": 911,
      "ory": 912,
      "cor": 913,
      "ays": 914,
      "ject": 915,
      "lio": 916,
      "Ġmol": 917,
      "Ã¬": 918,
      "oli": 919,
      "anto": 920,
      "ick": 921,
      "Ġcui": 922,
      "Ġ%": 923,
      "ph": 924,
      "ound": 925,
      "tri": 926,
      "ondo": 927,
      "Ġte": 928,
      "line": 929,
      "Ġem": 930,
      "oci": 931,
      "Ġnu": 932,
      "Ġsome": 933,
      "ain": 934,
      "Ġother": 935,
      "Ġpo": 936,
      "Ġmy": 937,
      "ount": 938,
      "ola": 939,
      "Ġpe": 940,
      "Ġgra": 941,
      "Ġog": 942,
      "orn": 943,
      "Ġmed": 944,
      "Ġno": 945,
      "Ġexp": 946,
      "iew": 947,
      "row": 948,
      "sp": 949,
      "atto": 950,
      "iamo": 951,
      "Ġ]": 952,
      "Ġ);": 953,
      "Ġ|": 954,
      "Ġprodu": 955,
      "reat": 956,
      "Ġprof": 957,
      "ĠPro": 958,
      "ĠPer": 959,
      "Ġwho": 960,
      "Ġac": 961,
      "emb": 962,
      "lp": 963,
      "Ġyear": 964,
      "enc": 965,
      "ook": 966,
      "ista": 967,
      "ll": 968,
      "Ġinf": 969,
      "Ġpol": 970,
      "ement": 971,
      "ft": 972,
      "Ġover": 973,
      "ĠLe": 974,
      "Ġlike": 975,
      "Ġhis": 976,
      "Ġwhen": 977,
      "Ġstud": 978,
      "peri": 979,
      "Ġpass": 980,
      "Ġmin": 981,
      "Ġproc": 982,
      "Ġits": 983,
      "ON": 984,
      "Ġthere": 985,
      "zza": 986,
      "ry": 987,
      "ish": 988,
      "Ġclass": 989,
      "ioni": 990,
      "Ġbr": 991,
      "Ġlav": 992,
      "Ġhelp": 993,
      "ane": 994,
      "Ġrep": 995,
      "imento": 996,
      "Ġut": 997,
      "ca": 998,
      "=\"": 999,
      "Ġreal": 1000,
      "Ġret": 1001,
      "Ġter": 1002,
      "ating": 1003,
      "Ġkn": 1004,
      "pport": 1005,
      "Ġsemp": 1006,
      "ese": 1007,
      "Ġ&": 1008,
      "Ġ[": 1009,
      "ative": 1010,
      "ider": 1011,
      "==": 1012,
      "que": 1013,
      "Ġinto": 1014,
      "igli": 1015,
      "Ġnum": 1016,
      "Ġaff": 1017,
      "Ġtemp": 1018,
      "very": 1019,
      "Ġ+": 1020,
      "eng": 1021,
      "Ġhow": 1022,
      "endo": 1023,
      "Ġwhat": 1024,
      "vent": 1025,
      "Ġmay": 1026,
      "Ġbeen": 1027,
      "Ġmost": 1028,
      "riv": 1029,
      "ĠAr": 1030,
      "Ġ//": 1031,
      "ech": 1032,
      "red": 1033,
      "Ġdef": 1034,
      "orm": 1035,
      "ĠYou": 1036,
      "itu": 1037,
      "ĠMar": 1038,
      "ĠCon": 1039,
      "ublic": 1040,
      "ates": 1041,
      "ize": 1042,
      "Ġfir": 1043,
      "low": 1044,
      "Ġloc": 1045,
      "Ġdegli": 1046,
      "ĠĠĠĠĠ": 1047,
      "ices": 1048,
      "xt": 1049,
      "tare": 1050,
      "egu": 1051,
      "rough": 1052,
      "Ġthan": 1053,
      "Ġbec": 1054,
      "imp": 1055,
      "Ġpossib": 1056,
      "ople": 1057,
      "vi": 1058,
      "(\"": 1059,
      "ivi": 1060,
      "Ġmake": 1061,
      "Ġconc": 1062,
      "ype": 1063,
      "ew": 1064,
      "gan": 1065,
      "Ġfam": 1066,
      "Ġvi": 1067,
      "Ġform": 1068,
      "gram": 1069,
      "Ġinclud": 1070,
      "par": 1071,
      "Ġfr": 1072,
      "Ġent": 1073,
      "ath": 1074,
      "utt": 1075,
      "anza": 1076,
      "Ġpa": 1077,
      "Ġser": 1078,
      "Ġdet": 1079,
      "ake": 1080,
      "ello": 1081,
      "',": 1082,
      "Ġdon": 1083,
      "In": 1084,
      "iness": 1085,
      "Ġart": 1086,
      "Ġuse": 1087,
      "ise": 1088,
      "Ġmag": 1089,
      "Ġrel": 1090,
      "ute": 1091,
      "we": 1092,
      "Ġdue": 1093,
      "ven": 1094,
      "do": 1095,
      "atter": 1096,
      "ities": 1097,
      "ood": 1098,
      "Ġdalla": 1099,
      "app": 1100,
      "Ġanni": 1101,
      "ystem": 1102,
      "ough": 1103,
      "iare": 1104,
      "old": 1105,
      "ull": 1106,
      "Ġcontro": 1107,
      "Ġhanno": 1108,
      "Ġreturn": 1109,
      "ps": 1110,
      "uc": 1111,
      "ann": 1112,
      "Ġjust": 1113,
      "erg": 1114,
      "Ġgio": 1115,
      "Ġact": 1116,
      "ility": 1117,
      "Ġnuov": 1118,
      "lus": 1119,
      "chÃ©": 1120,
      "ĠIf": 1121,
      "ott": 1122,
      "ert": 1123,
      "wn": 1124,
      "Ġaut": 1125,
      "tru": 1126,
      "Ġpeople": 1127,
      "min": 1128,
      "Ġnost": 1129,
      "mi": 1130,
      "upp": 1131,
      "Ġcomun": 1132,
      "king": 1133,
      "fter": 1134,
      "Ġsolo": 1135,
      "bs": 1136,
      "asc": 1137,
      "Ġ;": 1138,
      "Ġwould": 1139,
      "Ġsal": 1140,
      "Ġloro": 1141,
      "ode": 1142,
      "Ġfar": 1143,
      "etter": 1144,
      "usiness": 1145,
      "ĠSp": 1146,
      "Ġthese": 1147,
      "Ġset": 1148,
      "ange": 1149,
      "Ġconf": 1150,
      "Ġwere": 1151,
      "opo": 1152,
      "Ġher": 1153,
      "als": 1154,
      "ilitÃł": 1155,
      "The": 1156,
      "izi": 1157,
      "ung": 1158,
      "Ġtutti": 1159,
      "va": 1160,
      "oria": 1161,
      "Ġrequ": 1162,
      "Ġx": 1163,
      "Ġcr": 1164,
      "ict": 1165,
      "Ġdiffer": 1166,
      "Ġdire": 1167,
      "cos": 1168,
      "oto": 1169,
      "Ġpropr": 1170,
      "Ġthrough": 1171,
      "ause": 1172,
      "ade": 1173,
      "eri": 1174,
      "Set": 1175,
      "round": 1176,
      "Ġhad": 1177,
      "Ġmon": 1178,
      "Ġresp": 1179,
      "IN": 1180,
      "bbe": 1181,
      "ins": 1182,
      "atti": 1183,
      "Ġke": 1184,
      "ock": 1185,
      "eno": 1186,
      "Ġfac": 1187,
      "Ġwell": 1188,
      "ily": 1189,
      "ĠHe": 1190,
      "ful": 1191,
      "Ġlook": 1192,
      "Ġinform": 1193,
      "Ġparte": 1194,
      "atori": 1195,
      "otto": 1196,
      "Ġhigh": 1197,
      "izza": 1198,
      "Ġknow": 1199,
      "inter": 1200,
      "trib": 1201,
      "Ġcent": 1202,
      "ident": 1203,
      "ures": 1204,
      "ault": 1205,
      "Ġfil": 1206,
      "Ġsua": 1207,
      "Ġwor": 1208,
      "ĠFor": 1209,
      "isti": 1210,
      "arn": 1211,
      "Ġevery": 1212,
      "ession": 1213,
      "Ġcer": 1214,
      "ateg": 1215,
      "Ġsign": 1216,
      "Ġbl": 1217,
      "Ġprima": 1218,
      "Ġpartic": 1219,
      "Ġonly": 1220,
      "ĠpuÃ²": 1221,
      "cr": 1222,
      "Ġgener": 1223,
      "arg": 1224,
      "arket": 1225,
      "ĠSe": 1226,
      "ract": 1227,
      "tag": 1228,
      "Ġfirst": 1229,
      "Ġdur": 1230,
      "EN": 1231,
      "ĠAnd": 1232,
      "oth": 1233,
      "ror": 1234,
      "AT": 1235,
      "Ġdata": 1236,
      "ĠAd": 1237,
      "Ġplay": 1238,
      "Ġph": 1239,
      "alia": 1240,
      "****": 1241,
      "cun": 1242,
      "teg": 1243,
      "ular": 1244,
      "ics": 1245,
      "ĠMa": 1246,
      "AL": 1247,
      "ES": 1248,
      "its": 1249,
      "lia": 1250,
      "ivers": 1251,
      "Ġsempre": 1252,
      "any": 1253,
      "alth": 1254,
      "Ġ_": 1255,
      "Ġbas": 1256,
      "de": 1257,
      "Ġsia": 1258,
      "Ġsub": 1259,
      "Ġtw": 1260,
      "Ġabb": 1261,
      "Ġbel": 1262,
      "AR": 1263,
      "Ġcost": 1264,
      "Ġwant": 1265,
      "ĠEn": 1266,
      "Ġsm": 1267,
      "ool": 1268,
      "Ġstato": 1269,
      "Ġsuo": 1270,
      "esi": 1271,
      "Ġsucc": 1272,
      "aria": 1273,
      "Ġpublic": 1274,
      "ments": 1275,
      "oss": 1276,
      "Ġcontin": 1277,
      "bi": 1278,
      "Ġback": 1279,
      "arch": 1280,
      "mer": 1281,
      "sh": 1282,
      "Ġvia": 1283,
      "Ġoper": 1284,
      "Ġquesta": 1285,
      "vis": 1286,
      "ove": 1287,
      "Ġlib": 1288,
      "tern": 1289,
      "Ġbusiness": 1290,
      "Ġcur": 1291,
      "Ġop": 1292,
      "ks": 1293,
      "ele": 1294,
      "ower": 1295,
      "OR": 1296,
      "edi": 1297,
      "Ġpubb": 1298,
      "Ġfa": 1299,
      "Ġmi": 1300,
      "();": 1301,
      "less": 1302,
      "col": 1303,
      "Ġgrand": 1304,
      "Ġsee": 1305,
      "atch": 1306,
      "tring": 1307,
      "Ġsv": 1308,
      "('": 1309,
      "Ġmus": 1310,
      "ustom": 1311,
      "Ġpun": 1312,
      "zo": 1313,
      "asi": 1314,
      "Ġshould": 1315,
      "osi": 1316,
      "ced": 1317,
      "ecess": 1318,
      "atore": 1319,
      "Ġcal": 1320,
      "Ġbene": 1321,
      "uti": 1322,
      "Ġer": 1323,
      "Ġmany": 1324,
      "AN": 1325,
      "Ġorgan": 1326,
      "Ġprogram": 1327,
      "put": 1328,
      "Ġmolto": 1329,
      "Ġtrans": 1330,
      "tro": 1331,
      "'t": 1332,
      "Ġsulla": 1333,
      "ĠGi": 1334,
      "Ġvers": 1335,
      "Ġuno": 1336,
      "Ġshe": 1337,
      "try": 1338,
      "ational": 1339,
      "Ġdesign": 1340,
      "Ġnat": 1341,
      "Ġstart": 1342,
      "</": 1343,
      "ied": 1344,
      "Ġsar": 1345,
      "##": 1346,
      "Ġutil": 1347,
      "Ġwhere": 1348,
      "isc": 1349,
      "izio": 1350,
      "Ġsuch": 1351,
      "Ġend": 1352,
      "ĠAs": 1353,
      "ĠZ": 1354,
      "ĠFr": 1355,
      "Ġonline": 1356,
      "ection": 1357,
      "Ġexperi": 1358,
      "Ġway": 1359,
      "Ġdivers": 1360,
      "ife": 1361,
      "oni": 1362,
      "ora": 1363,
      "acc": 1364,
      "ward": 1365,
      "Ġbest": 1366,
      "Ġtu": 1367,
      "Ġimm": 1368,
      "ator": 1369,
      "Ġu": 1370,
      "Ġcond": 1371,
      "ĠSh": 1372,
      "Ġtutto": 1373,
      "Ġrag": 1374,
      "Ġproble": 1375,
      "day": 1376,
      "ues": 1377,
      "Ġprod": 1378,
      "fore": 1379,
      "Ġnecess": 1380,
      "br": 1381,
      "ĠTr": 1382,
      "Ġsaid": 1383,
      "pon": 1384,
      "tra": 1385,
      "Ġdisc": 1386,
      "Ġmil": 1387,
      "etta": 1388,
      "gra": 1389,
      "Ġtest": 1390,
      "Ġgior": 1391,
      "Bin": 1392,
      "Ġoffer": 1393,
      "etti": 1394,
      "Ġeven": 1395,
      "itud": 1396,
      "egn": 1397,
      "zionale": 1398,
      "Ġfind": 1399,
      "bre": 1400,
      "efault": 1401,
      "Ġbo": 1402,
      "Ġvari": 1403,
      "Ġmu": 1404,
      "Ġvery": 1405,
      "enze": 1406,
      "Ġprocess": 1407,
      "Ġgood": 1408,
      "Ġright": 1409,
      "bo": 1410,
      "cept": 1411,
      "ivid": 1412,
      "Ġcamp": 1413,
      "Ġnei": 1414,
      "ww": 1415,
      "Ġtwo": 1416,
      "Ġogni": 1417,
      "val": 1418,
      "ash": 1419,
      "Ġafter": 1420,
      "pert": 1421,
      "Ġpresent": 1422,
      "por": 1423,
      "SetBin": 1424,
      "Ġliv": 1425,
      "Ġdall": 1426,
      "Ġcomplet": 1427,
      "ena": 1428,
      "Ġgen": 1429,
      "Ġtre": 1430,
      "ext": 1431,
      "Ġterm": 1432,
      "ona": 1433,
      "Ġcould": 1434,
      "ĠRe": 1435,
      "Ġalcun": 1436,
      "ital": 1437,
      "ness": 1438,
      "ĠHow": 1439,
      "Ġown": 1440,
      "ĠOn": 1441,
      "ella": 1442,
      "Ġtempo": 1443,
      "roup": 1444,
      "elli": 1445,
      "atic": 1446,
      "Ġsenza": 1447,
      "Ġmarket": 1448,
      "omet": 1449,
      "Ġproduct": 1450,
      "Ġdown": 1451,
      "Ġrip": 1452,
      "Ġsoci": 1453,
      "Ġsto": 1454,
      "ĠNew": 1455,
      "Ġlong": 1456,
      "lay": 1457,
      "Ġcolle": 1458,
      "Ġyears": 1459,
      "--------": 1460,
      "aggio": 1461,
      "hed": 1462,
      "esto": 1463,
      "Ġpriv": 1464,
      "ĠperchÃ©": 1465,
      "rent": 1466,
      "Ġtrov": 1467,
      "Ġfare": 1468,
      "Ġthen": 1469,
      "atta": 1470,
      "els": 1471,
      "Ġusing": 1472,
      "arsi": 1473,
      "Ġdom": 1474,
      "::": 1475,
      "Ġcir": 1476,
      "Ġfol": 1477,
      "Ġnell": 1478,
      "ner": 1479,
      "Ġquest": 1480,
      "Ġmom": 1481,
      "ivitÃł": 1482,
      "ete": 1483,
      "Ġmar": 1484,
      "Ġopt": 1485,
      "Ġocc": 1486,
      "velop": 1487,
      "Ġtras": 1488,
      "ĠCar": 1489,
      "ron": 1490,
      "iste": 1491,
      "pro": 1492,
      "ected": 1493,
      "Ġpur": 1494,
      "nolog": 1495,
      "ery": 1496,
      "Ġself": 1497,
      "ern": 1498,
      "Ġrif": 1499,
      "Ġvita": 1500,
      "__": 1501,
      "Ġmodo": 1502,
      "ĠĠĠĠĠĠĠĠĠĠĠĠĠĠĠĠĠĠĠ": 1503,
      "oid": 1504,
      "Ġtake": 1505,
      "Ġconsider": 1506,
      "bor": 1507,
      "hip": 1508,
      "iel": 1509,
      "Ġsystem": 1510,
      "read": 1511,
      "Ġmater": 1512,
      "Ġdevelop": 1513,
      "Ġpubblic": 1514,
      "nt": 1515,
      "Ġdoc": 1516,
      "utto": 1517,
      "Ġpop": 1518,
      "forma": 1519,
      "esta": 1520,
      "ware": 1521,
      "ric": 1522,
      "zzo": 1523,
      "ior": 1524,
      "Ġz": 1525,
      "ved": 1526,
      "Ġlead": 1527,
      "osc": 1528,
      "Ġancor": 1529,
      "imi": 1530,
      "ai": 1531,
      "ument": 1532,
      "Ġdopo": 1533,
      "Ġide": 1534,
      "ĠSc": 1535,
      "Ġread": 1536,
      "ĠNon": 1537,
      "Ġhome": 1538,
      "IC": 1539,
      "Ġcustom": 1540,
      "ited": 1541,
      "etÃł": 1542,
      "Ġsupport": 1543,
      "olare": 1544,
      "Ġinformation": 1545,
      "az": 1546,
      "Ġment": 1547,
      "Ġnow": 1548,
      "pl": 1549,
      "ames": 1550,
      "allW": 1551,
      "Theta": 1552,
      "uss": 1553,
      "ara": 1554,
      "IT": 1555,
      "cosTheta": 1556,
      "ets": 1557,
      "ister": 1558,
      "Ġquando": 1559,
      "âĢĿ.": 1560,
      "duc": 1561,
      "Ġ@": 1562,
      "ativa": 1563,
      "Ġteam": 1564,
      "Ġprovid": 1565,
      "Ġcli": 1566,
      "ature": 1567,
      "Ġworld": 1568,
      "Ġrisp": 1569,
      "Ġera": 1570,
      "ĠDefault": 1571,
      "of": 1572,
      "ID": 1573,
      "Ġsur": 1574,
      "led": 1575,
      "Ġsk": 1576,
      "ĠEx": 1577,
      "omm": 1578,
      "Ġcare": 1579,
      "allWcosTheta": 1580,
      "ank": 1581,
      "resent": 1582,
      "ismo": 1583,
      "ST": 1584,
      "Ġbecause": 1585,
      "Ġpor": 1586,
      "sc": 1587,
      "Ġmondo": 1588,
      "Ġinst": 1589,
      "gg": 1590,
      "Ġused": 1591,
      "Ġancora": 1592,
      "po": 1593,
      "Ġhand": 1594,
      "Ġwhile": 1595,
      "istr": 1596,
      "Ġpag": 1597,
      "Ġlu": 1598,
      "Ġprofession": 1599,
      "Ġtech": 1600,
      "Ġquello": 1601,
      "conom": 1602,
      "ĠÂ«": 1603,
      "Cont": 1604,
      "Ġaltri": 1605,
      "uta": 1606,
      "ave": 1607,
      "itude": 1608,
      "hing": 1609,
      "Ġracc": 1610,
      "other": 1611,
      "ibile": 1612,
      "ifica": 1613,
      "Ġtip": 1614,
      "Ġshow": 1615,
      "Ġproprio": 1616,
      "aut": 1617,
      "Ġdov": 1618,
      "tif": 1619,
      "ible": 1620,
      "Ġgreat": 1621,
      "ield": 1622,
      "ek": 1623,
      "://": 1624,
      "Ġmuch": 1625,
      "Ġrich": 1626,
      "Ġstra": 1627,
      "icc": 1628,
      "Ġappro": 1629,
      "Ġdist": 1630,
      "Ġlavoro": 1631,
      "ĠCol": 1632,
      "Ġday": 1633,
      "Ġfatto": 1634,
      "ax": 1635,
      "arm": 1636,
      "oy": 1637,
      "Ġrapp": 1638,
      "Ġnelle": 1639,
      "tÃł": 1640,
      "Ġhealth": 1641,
      "alitÃł": 1642,
      "Ġbefore": 1643,
      "ually": 1644,
      "Ġperm": 1645,
      "ĠcosÃ¬": 1646,
      "da": 1647,
      "Ġdove": 1648,
      "Ġbre": 1649,
      "Ġdoes": 1650,
      "set": 1651,
      "osa": 1652,
      "ece": 1653,
      "ocial": 1654,
      "Ġrequire": 1655,
      "ines": 1656,
      "Ġpost": 1657,
      "Ġsuccess": 1658,
      "Ġcommun": 1659,
      "Ġsuper": 1660,
      "ution": 1661,
      "ders": 1662,
      "ida": 1663,
      "\">": 1664,
      "Ġquanto": 1665,
      "Ġinvest": 1666,
      "lu": 1667,
      "Ġthose": 1668,
      "ever": 1669,
      "Ġsecond": 1670,
      "EL": 1671,
      "isce": 1672,
      "Ġresult": 1673,
      "Â»": 1674,
      "Ġsett": 1675,
      "land": 1676,
      "ideo": 1677,
      "Ġcle": 1678,
      "Ġcall": 1679,
      "Ġriv": 1680,
      "ĠReg": 1681,
      "ĠSan": 1682,
      "indi": 1683,
      "Ġbet": 1684,
      "ces": 1685,
      "ĠThere": 1686,
      "yp": 1687,
      "Ġeuro": 1688,
      "ody": 1689,
      "zia": 1690,
      "ĠIN": 1691,
      "Ġbeing": 1692,
      "Ġlife": 1693,
      "Ġport": 1694,
      "ember": 1695,
      "Ġdifferent": 1696,
      "Ġdid": 1697,
      "mail": 1698,
      "ĠTo": 1699,
      "Ġtec": 1700,
      "ray": 1701,
      "ĠSi": 1702,
      "ized": 1703,
      "Ġpoi": 1704,
      "ĠX": 1705,
      "rend": 1706,
      "rÃł": 1707,
      "ential": 1708,
      "ouse": 1709,
      "way": 1710,
      "ining": 1711,
      "Ġsop": 1712,
      "ms": 1713,
      "atr": 1714,
      "Ġest": 1715,
      "Ġ\\": 1716,
      "Ġmade": 1717,
      "lass": 1718,
      "Ġprop": 1719,
      "Ġunder": 1720,
      "self": 1721,
      "Ġĉĉĉĉ": 1722,
      "Ġmov": 1723,
      "Ġ>": 1724,
      "Ġlim": 1725,
      "Ġpolit": 1726,
      "ĠPa": 1727,
      "Ġeach": 1728,
      "rebbe": 1729,
      "incip": 1730,
      "Ġdev": 1731,
      ".âĢĿ": 1732,
      "bl": 1733,
      "mp": 1734,
      "view": 1735,
      "Ġsegu": 1736,
      "Ġfu": 1737,
      "uard": 1738,
      "Ġdati": 1739,
      "ety": 1740,
      "name": 1741,
      "Ġlist": 1742,
      "izzazione": 1743,
      "Ġspecial": 1744,
      "Ġhere": 1745,
      "Ġcult": 1746,
      "Ġexperience": 1747,
      "Ġsupp": 1748,
      "ĠGo": 1749,
      "ince": 1750,
      "ural": 1751,
      "fe": 1752,
      "Ġitali": 1753,
      "Ġacqu": 1754,
      "izione": 1755,
      "ason": 1756,
      "Ġfollow": 1757,
      "ton": 1758,
      "work": 1759,
      "Ġutilizz": 1760,
      "ltre": 1761,
      "Ġprom": 1762,
      "Ġ',": 1763,
      "ĠThey": 1764,
      "Ġlot": 1765,
      "load": 1766,
      "onte": 1767,
      "ĠSo": 1768,
      "orto": 1769,
      "agn": 1770,
      "amenti": 1771,
      "ĠTra": 1772,
      "Ġcaso": 1773,
      "Ġsch": 1774,
      "ede": 1775,
      "Ġfunction": 1776,
      "Ġindivid": 1777,
      "RE": 1778,
      "uzione": 1779,
      "ling": 1780,
      "Ġ...": 1781,
      "Ġaccess": 1782,
      "ĠBut": 1783,
      "Ġprot": 1784,
      "ĠOr": 1785,
      "ipt": 1786,
      "ĠÃ": 1787,
      "Ġfree": 1788,
      "))": 1789,
      "ense": 1790,
      "Ġtop": 1791,
      "Er": 1792,
      "ĠWhat": 1793,
      "ances": 1794,
      "Ġthink": 1795,
      "Ġrit": 1796,
      "ĠCons": 1797,
      "Ġĉĉĉ": 1798,
      "Ġline": 1799,
      "Ġpens": 1800,
      "Ġsic": 1801,
      "lica": 1802,
      "Ġagain": 1803,
      "ined": 1804,
      "ĠPr": 1805,
      "ages": 1806,
      "loy": 1807,
      "Ġallow": 1808,
      "reate": 1809,
      "Ġcontrol": 1810,
      "Ġdep": 1811,
      "ĠSu": 1812,
      "Ġcontinu": 1813,
      "Ġcoun": 1814,
      "Ġcho": 1815,
      "ĠgiÃł": 1816,
      "imes": 1817,
      "ten": 1818,
      "ning": 1819,
      "ĠPar": 1820,
      "Ġdecis": 1821,
      "Ġpay": 1822,
      "uppo": 1823,
      "ather": 1824,
      "ased": 1825,
      "ĠAll": 1826,
      "getto": 1827,
      "Ġste": 1828,
      "ser": 1829,
      "vol": 1830,
      "Ġgover": 1831,
      "St": 1832,
      "ĠApp": 1833,
      "ĠComm": 1834,
      "ween": 1835,
      "oso": 1836,
      "dd": 1837,
      "Ġeconom": 1838,
      "Ġlat": 1839,
      "erÃł": 1840,
      "Ġfut": 1841,
      "Ġgrande": 1842,
      "ĠsarÃł": 1843,
      "razione": 1844,
      "Ġrem": 1845,
      "Ġri": 1846,
      "âĢĿ,": 1847,
      "Ġstor": 1848,
      "Ġben": 1849,
      "Ġexc": 1850,
      "ĠPre": 1851,
      "iglio": 1852,
      "Ġconst": 1853,
      "====": 1854,
      "ette": 1855,
      "Ġname": 1856,
      "Tr": 1857,
      "Ġpersone": 1858,
      "Ġ==": 1859,
      "ativo": 1860,
      "Ġsost": 1861,
      "Ġdig": 1862,
      "ross": 1863,
      "be": 1864,
      "ĠIs": 1865,
      "Ġprincip": 1866,
      "ote": 1867,
      "Ġsito": 1868,
      "otti": 1869,
      "edic": 1870,
      "ĠRom": 1871,
      "Ġstat": 1872,
      "Ġapplic": 1873,
      "this": 1874,
      "use": 1875,
      "Ġmot": 1876,
      "Ġstate": 1877,
      "Ġquella": 1878,
      "Ġimportant": 1879,
      "reen": 1880,
      "iment": 1881,
      "Ġtem": 1882,
      "Ġâ": 1883,
      "esse": 1884,
      "Ġtal": 1885,
      "Ġrim": 1886,
      "Ġdr": 1887,
      "Ġpossono": 1888,
      "ants": 1889,
      "imenti": 1890,
      "ailable": 1891,
      "Ġweb": 1892,
      "Ġequ": 1893,
      "Ġstand": 1894,
      "pi": 1895,
      "Ġcour": 1896,
      "Ġartic": 1897,
      "ogli": 1898,
      "ziend": 1899,
      "Ġfine": 1900,
      "me": 1901,
      "ĠRes": 1902,
      "Ġaround": 1903,
      "ways": 1904,
      "isi": 1905,
      "Ġdai": 1906,
      "zie": 1907,
      "Error": 1908,
      "essa": 1909,
      "ĠâĢĺ": 1910,
      "riend": 1911,
      "elle": 1912,
      "Ġboth": 1913,
      "ĠWith": 1914,
      "Ġtak": 1915,
      "Ġlearn": 1916,
      "Ġlast": 1917,
      "nov": 1918,
      "ars": 1919,
      "Ġbetween": 1920,
      "Ġchild": 1921,
      "ying": 1922,
      "Ġob": 1923,
      "embre": 1924,
      "iglia": 1925,
      "Ġbase": 1926,
      "Ġbenef": 1927,
      "fo": 1928,
      "oper": 1929,
      "Ġincre": 1930,
      "azioni": 1931,
      "ION": 1932,
      "go": 1933,
      "Ġnostro": 1934,
      "Ġsim": 1935,
      "Ġhim": 1936,
      "ives": 1937,
      "orts": 1938,
      "ĠMan": 1939,
      "Ġtit": 1940,
      "Ġcosa": 1941,
      "Ġeffect": 1942,
      "ĠDi": 1943,
      "Ġprovide": 1944,
      "ĠBr": 1945,
      "enn": 1946,
      "Ġpersonal": 1947,
      "uale": 1948,
      "fr": 1949,
      "Ġmanag": 1950,
      "ĠWhen": 1951,
      "ET": 1952,
      "Ġperio": 1953,
      "Ġott": 1954,
      "Ġanal": 1955,
      "Ġadv": 1956,
      "tic": 1957,
      "Ġdem": 1958,
      "Ġdiffic": 1959,
      "ĠGr": 1960,
      "Ġquindi": 1961,
      "igi": 1962,
      "Ġeas": 1963,
      "Ġkeep": 1964,
      "Ġti": 1965,
      "Ġho": 1966,
      "Ġperform": 1967,
      "enzi": 1968,
      "ritto": 1969,
      "pportun": 1970,
      "ĠBe": 1971,
      "Ġplace": 1972,
      "Ġrespons": 1973,
      "Ġcook": 1974,
      "Ġnuovo": 1975,
      "ustr": 1976,
      "Ġrig": 1977,
      "Ġcompany": 1978,
      "ĠItalia": 1979,
      "Ġdalle": 1980,
      "Ġcase": 1981,
      "Ġperf": 1982,
      "Id": 1983,
      "Ġbuild": 1984,
      "idi": 1985,
      "TO": 1986,
      "Ġsocial": 1987,
      "Ġmain": 1988,
      "Ġrun": 1989,
      "Ġprimo": 1990,
      "abile": 1991,
      "Ġproject": 1992,
      "log": 1993,
      "ĠPi": 1994,
      "Ġvisit": 1995,
      "air": 1996,
      "tto": 1997,
      "Ġnumber": 1998,
      "Ġvolta": 1999,
      "ittÃł": 2000,
      "ubb": 2001,
      "Ġattra": 2002,
      "Ġsitu": 2003,
      "Ġsing": 2004,
      "RO": 2005,
      "Ġsimp": 2006,
      "idente": 2007,
      "Ġorig": 2008,
      "lease": 2009,
      "Ġincluding": 2010,
      "Ġchar": 2011,
      "):": 2012,
      "Ġoltre": 2013,
      "Ġcred": 2014,
      "ters": 2015,
      "Ġmass": 2016,
      "Ġsame": 2017,
      "kes": 2018,
      "Ġquesti": 2019,
      "Ġservice": 2020,
      "Ġgrow": 2021,
      "Ġmigli": 2022,
      "ream": 2023,
      "Ġfact": 2024,
      "\".": 2025,
      "ris": 2026,
      "ĠEuro": 2027,
      "ĠDe": 2028,
      "son": 2029,
      "gli": 2030,
      "Ġid": 2031,
      "Ġservices": 2032,
      "ists": 2033,
      "lement": 2034,
      "Ġemp": 2035,
      "Ġpoint": 2036,
      "ency": 2037,
      "ample": 2038,
      "Ġanno": 2039,
      "Ġens": 2040,
      "Ġtutte": 2041,
      "Ġgame": 2042,
      "ĠAss": 2043,
      "Ġstata": 2044,
      "oney": 2045,
      "Ġviene": 2046,
      "agli": 2047,
      "Ġfeel": 2048,
      "ulti": 2049,
      "vert": 2050,
      "Ġavailable": 2051,
      "Ġasp": 2052,
      "Content": 2053,
      "Ġwebs": 2054,
      "Ġfino": 2055,
      "Ġopen": 2056,
      "chio": 2057,
      "\":": 2058,
      "Ġevent": 2059,
      "']": 2060,
      "ament": 2061,
      "Ġbook": 2062,
      "hod": 2063,
      "requ": 2064,
      "Ġsomet": 2065,
      "ving": 2066,
      "yle": 2067,
      "Ġwithout": 2068,
      "man": 2069,
      "Ġoggi": 2070,
      "Ġesp": 2071,
      "add": 2072,
      "Ġult": 2073,
      "inal": 2074,
      "ĠMil": 2075,
      "Ġcompet": 2076,
      "Ġvar": 2077,
      "Ġmust": 2078,
      "AS": 2079,
      "Ġduring": 2080,
      "Ġhtt": 2081,
      "Ġvideo": 2082,
      "Ġintern": 2083,
      "tand": 2084,
      "Ġfound": 2085,
      "Ġquale": 2086,
      "Ġcit": 2087,
      "Ġpossibile": 2088,
      "Ġcasa": 2089,
      "enere": 2090,
      "org": 2091,
      "Ġfav": 2092,
      "ource": 2093,
      "Ġcaus": 2094,
      "Ġdello": 2095,
      "Ġiss": 2096,
      "ĠCor": 2097,
      "Ġconn": 2098,
      "Ġunders": 2099,
      "Ġreally": 2100,
      "rare": 2101,
      "une": 2102,
      "iron": 2103,
      "Ġelse": 2104,
      "Ġstesso": 2105,
      "\")": 2106,
      "rag": 2107,
      "hes": 2108,
      "Ġstill": 2109,
      "ĠAt": 2110,
      "cript": 2111,
      "Ġgoing": 2112,
      "Ġaggi": 2113,
      "Ġsl": 2114,
      "Ġstrateg": 2115,
      "ĠCo": 2116,
      "ves": 2117,
      "erca": 2118,
      "data": 2119,
      "ĠSal": 2120,
      "Ġfond": 2121,
      "Ġfew": 2122,
      "edere": 2123,
      "AM": 2124,
      "Ġvalue": 2125,
      "ĠÃĪ": 2126,
      "ĠAg": 2127,
      "ts": 2128,
      "osto": 2129,
      "Ġwater": 2130,
      "Ġbi": 2131,
      "********": 2132,
      "ĠCome": 2133,
      "Ġore": 2134,
      "lob": 2135,
      "uff": 2136,
      "pre": 2137,
      "Ġ=>": 2138,
      "Ġparti": 2139,
      "Ġattravers": 2140,
      "ĠAm": 2141,
      "pa": 2142,
      "Ġsens": 2143,
      "Ġrend": 2144,
      "ava": 2145,
      "table": 2146,
      "omen": 2147,
      "ĠCent": 2148,
      "Ġtratt": 2149,
      "IS": 2150,
      "Ġcolla": 2151,
      "['": 2152,
      "Ġident": 2153,
      "Ġaver": 2154,
      "izia": 2155,
      "Ġsci": 2156,
      "Ġlevel": 2157,
      "lex": 2158,
      "Ġdim": 2159,
      "yn": 2160,
      "Ġfi": 2161,
      "Ġtel": 2162,
      "Ġmonth": 2163,
      "etting": 2164,
      "Name": 2165,
      "OL": 2166,
      "Ġtype": 2167,
      "ä¸": 2168,
      "ĠPh": 2169,
      "Ġfilm": 2170,
      "IL": 2171,
      "ĠPol": 2172,
      "Ġcontr": 2173,
      "Ġmess": 2174,
      "ĠInd": 2175,
      "etro": 2176,
      "aster": 2177,
      "Ġforma": 2178,
      "Ġeng": 2179,
      "Ġpower": 2180,
      "Ġ`": 2181,
      "Ġinforma": 2182,
      "ĠCal": 2183,
      "esti": 2184,
      "Ġrid": 2185,
      "atura": 2186,
      "ĠCl": 2187,
      "Ġopportun": 2188,
      "ĠUS": 2189,
      "Ġsotto": 2190,
      "ontro": 2191,
      "Ġnorm": 2192,
      "reg": 2193,
      "Ġmal": 2194,
      "ambi": 2195,
      "Ġorder": 2196,
      "book": 2197,
      "ĠVal": 2198,
      "Ġconsum": 2199,
      "cle": 2200,
      "Ġsog": 2201,
      "\");": 2202,
      "Ġaddition": 2203,
      "Ġhapp": 2204,
      "Ġtro": 2205,
      "Ġpicc": 2206,
      "Ġthings": 2207,
      "date": 2208,
      "Ġmomento": 2209,
      "enso": 2210,
      "Ġrece": 2211,
      "Ġlavor": 2212,
      "ger": 2213,
      "Ġcreate": 2214,
      "uring": 2215,
      "create": 2216,
      "Ġsmall": 2217,
      "occ": 2218,
      "Ġthough": 2219,
      "Ġbetter": 2220,
      "Ġtot": 2221,
      "wh": 2222,
      "ogo": 2223,
      "Ġmor": 2224,
      "Ġcomb": 2225,
      "Ġave": 2226,
      "Ġmight": 2227,
      "iale": 2228,
      "esa": 2229,
      "Ġstoria": 2230,
      "tact": 2231,
      "itor": 2232,
      "ences": 2233,
      "Ġ),": 2234,
      "eme": 2235,
      "Ġagli": 2236,
      "Ġarriv": 2237,
      "Ġsecondo": 2238,
      "Ġsignific": 2239,
      "Ġvoid": 2240,
      "Ġsure": 2241,
      "aggi": 2242,
      "oco": 2243,
      "Ġnostra": 2244,
      "ym": 2245,
      "Ġquali": 2246,
      "div": 2247,
      "Ġsoft": 2248,
      "Ġcontrib": 2249,
      "illa": 2250,
      "ization": 2251,
      "Ġsent": 2252,
      "Ġdest": 2253,
      "Ġann": 2254,
      "Ġcurrent": 2255,
      "Ġinterest": 2256,
      "Ġdirect": 2257,
      "Ġsvil": 2258,
      "tegr": 2259,
      "unt": 2260,
      "ĠcittÃł": 2261,
      "ĠNel": 2262,
      "Ġtrad": 2263,
      "Ġalways": 2264,
      "truct": 2265,
      "Ġwithin": 2266,
      "AC": 2267,
      "Ġmer": 2268,
      "Ġmai": 2269,
      "ĠThese": 2270,
      "istema": 2271,
      "thing": 2272,
      "ED": 2273,
      "SetBinContent": 2274,
      "Ġ!": 2275,
      "Ġcheck": 2276,
      "search": 2277,
      "ĠJo": 2278,
      "ared": 2279,
      "new": 2280,
      "Ġbamb": 2281,
      "ĠAmer": 2282,
      "Ġunderstand": 2283,
      "Ġneg": 2284,
      "ĠChe": 2285,
      "Ġtoo": 2286,
      "Ġsel": 2287,
      "Ġref": 2288,
      "port": 2289,
      "ape": 2290,
      "Pro": 2291,
      "ĠUna": 2292,
      "Ġbeg": 2293,
      "True": 2294,
      "ĠCan": 2295,
      "Ġgar": 2296,
      "Ġsui": 2297,
      "arly": 2298,
      "Ġmedia": 2299,
      "Ġgiorni": 2300,
      "ecip": 2301,
      "Ġaltre": 2302,
      "Ġdivent": 2303,
      "Ġweek": 2304,
      "Ġspe": 2305,
      "Ġlung": 2306,
      "ĠNo": 2307,
      ".\"": 2308,
      "cent": 2309,
      "oll": 2310,
      "ism": 2311,
      "Ġsuoi": 2312,
      "Ġseg": 2313,
      "Ar": 2314,
      "Ġdefin": 2315,
      "ently": 2316,
      "hi": 2317,
      "Ġgroup": 2318,
      "text": 2319,
      "It": 2320,
      "ocus": 2321,
      "ittle": 2322,
      "ĠRep": 2323,
      "Ġing": 2324,
      "Ġthree": 2325,
      "Ġmaking": 2326,
      "ĠComp": 2327,
      "hor": 2328,
      "ĠAcc": 2329,
      "Ġ).": 2330,
      "Ġable": 2331,
      "ished": 2332,
      "ĠRo": 2333,
      "aro": 2334,
      "Ġfamily": 2335,
      "itive": 2336,
      "Ġdispos": 2337,
      "omo": 2338,
      "lick": 2339,
      "Ġactiv": 2340,
      "itori": 2341,
      "return": 2342,
      "Ġesemp": 2343,
      "Ġnoi": 2344,
      "Ġgiorno": 2345,
      "Ġ*/": 2346,
      "Ġnext": 2347,
      "Ġdedic": 2348,
      "Ġlet": 2349,
      "Ġpare": 2350,
      "Ġqui": 2351,
      "isog": 2352,
      "Ġaccount": 2353,
      "ĠattivitÃł": 2354,
      "Ġmerc": 2355,
      "alse": 2356,
      "ĠĠĠĠĠĠĠĠĠĠĠĠĠĠĠĠĠĠĠĠĠĠĠ": 2357,
      "Ġcrit": 2358,
      "ĠOur": 2359,
      "Con": 2360,
      "ission": 2361,
      "Ġattraverso": 2362,
      "til": 2363,
      "arr": 2364,
      "($": 2365,
      "ĠServ": 2366,
      "etwork": 2367,
      "Ġhead": 2368,
      "osp": 2369,
      "ards": 2370,
      "izzare": 2371,
      "atures": 2372,
      "Ġspecific": 2373,
      "String": 2374,
      "ills": 2375,
      "Ġlove": 2376,
      "Ġprivate": 2377,
      "ering": 2378,
      "anta": 2379,
      "IA": 2380,
      "Ġavere": 2381,
      "Ġ</": 2382,
      "Ġdeterm": 2383,
      "sieme": 2384,
      "Ġsay": 2385,
      "play": 2386,
      "Ġauto": 2387,
      "vero": 2388,
      "Ġbig": 2389,
      "ĠCO": 2390,
      "Ġopp": 2391,
      "corso": 2392,
      "Ġkey": 2393,
      "ivamente": 2394,
      "Ġecc": 2395,
      "ĠShe": 2396,
      "ela": 2397,
      "Ġcam": 2398,
      "ional": 2399,
      "uman": 2400,
      "lack": 2401,
      "ĠGu": 2402,
      "Ġwrit": 2403,
      "Ġlocal": 2404,
      "Ġwebsite": 2405,
      "Ġforn": 2406,
      "engono": 2407,
      "atica": 2408,
      "Ġcop": 2409,
      "Ġpunto": 2410,
      "ĠLu": 2411,
      "orio": 2412,
      "Ġtrue": 2413,
      "indow": 2414,
      "itare": 2415,
      "Ġmis": 2416,
      "ĠâĢĶ": 2417,
      "ĠSte": 2418,
      "irt": 2419,
      "ately": 2420,
      "itions": 2421,
      "back": 2422,
      ",âĢĿ": 2423,
      "Ġarea": 2424,
      "Ġpia": 2425,
      "Ġmemb": 2426,
      "ffici": 2427,
      "acy": 2428,
      "Ġindividual": 2429,
      "Ġcin": 2430,
      "Ġalcuni": 2431,
      "Ġhard": 2432,
      "anzi": 2433,
      "usc": 2434,
      "Ġpract": 2435,
      "Ġenerg": 2436,
      "ats": 2437,
      "ĠLo": 2438,
      "ask": 2439,
      "emente": 2440,
      "Ġtyp": 2441,
      "viron": 2442,
      "sel": 2443,
      "Ġabbiamo": 2444,
      "ites": 2445,
      "Ġgiorn": 2446,
      "ically": 2447,
      "ordin": 2448,
      "Ġrappresent": 2449,
      "Ġinformazioni": 2450,
      "Ġproducts": 2451,
      "ĠIns": 2452,
      "Ġpropri": 2453,
      "EC": 2454,
      "Ġindus": 2455,
      "Ġpropos": 2456,
      "Ġrispetto": 2457,
      "Ġinclude": 2458,
      "almente": 2459,
      "Ġgiov": 2460,
      "Ġext": 2461,
      "ĠPres": 2462,
      "Ġschool": 2463,
      "ĠFe": 2464,
      "Ġarg": 2465,
      "Ġscel": 2466,
      "Ġbar": 2467,
      "dis": 2468,
      "omp": 2469,
      "Ġnov": 2470,
      "Ġfull": 2471,
      "ches": 2472,
      "List": 2473,
      "Re": 2474,
      "Ġmeno": 2475,
      "ours": 2476,
      "Ġneeds": 2477,
      "pping": 2478,
      "Ġmoney": 2479,
      "lare": 2480,
      "ple": 2481,
      "ney": 2482,
      "ichi": 2483,
      "tad": 2484,
      "Ġlight": 2485,
      "ibili": 2486,
      "####": 2487,
      "Ġfoto": 2488,
      "Un": 2489,
      "Ġsulle": 2490,
      "essi": 2491,
      "Ġsomething": 2492,
      "izzato": 2493,
      "ume": 2494,
      "Ġemploy": 2495,
      "Ġview": 2496,
      "Ġcaratter": 2497,
      "Ġtecn": 2498,
      "Ġinvece": 2499,
      "Ġterrit": 2500,
      "time": 2501,
      "ostri": 2502,
      "Ġsopr": 2503,
      "Ġsf": 2504,
      "itch": 2505,
      "Ġfood": 2506,
      "Ġeduc": 2507,
      "ido": 2508,
      "resc": 2509,
      "Type": 2510,
      "eder": 2511,
      "ieg": 2512,
      "ala": 2513,
      "Ġfriend": 2514,
      "Ex": 2515,
      "ĠĠĠĠĠĠĠĠĠ": 2516,
      "ots": 2517,
      "urity": 2518,
      "Ġdeve": 2519,
      "Ġsistema": 2520,
      "ush": 2521,
      "err": 2522,
      "Ġvend": 2523,
      "ift": 2524,
      "Ġanother": 2525,
      "ĠSec": 2526,
      "ativi": 2527,
      "ĠBy": 2528,
      "anni": 2529,
      "Ġgive": 2530,
      "UL": 2531,
      "Ġcollabor": 2532,
      "oint": 2533,
      "ĠRoma": 2534,
      "SetBinError": 2535,
      "zzi": 2536,
      "rop": 2537,
      "ĠDI": 2538,
      "Ġlittle": 2539,
      "Ġworking": 2540,
      "Ġpartecip": 2541,
      "arge": 2542,
      "arget": 2543,
      "duct": 2544,
      "Ġmentre": 2545,
      "Ġless": 2546,
      "Ġbrand": 2547,
      "Ġresearch": 2548,
      "ending": 2549,
      "TI": 2550,
      "ĠHome": 2551,
      "ords": 2552,
      "Ġlaw": 2553,
      "ĠQuesto": 2554,
      "vo": 2555,
      "ements": 2556,
      "Ġfl": 2557,
      "Ġemail": 2558,
      "oltre": 2559,
      "Ġconfer": 2560,
      "Ġet": 2561,
      "Ġquality": 2562,
      "ĠUnivers": 2563,
      "ems": 2564,
      "ee": 2565,
      "enzione": 2566,
      "urs": 2567,
      "ĠHowever": 2568,
      "Ġtechnolog": 2569,
      "ector": 2570,
      "Ġgovern": 2571,
      "hether": 2572,
      "Ġinfatti": 2573,
      "odel": 2574,
      "ogle": 2575,
      "Ġnuova": 2576,
      "ĠYour": 2577,
      "gior": 2578,
      "ik": 2579,
      "eta": 2580,
      "Ġaltro": 2581,
      "eria": 2582,
      "Ġfile": 2583,
      "long": 2584,
      "iore": 2585,
      "Ġmeet": 2586,
      "joy": 2587,
      "tore": 2588,
      "uno": 2589,
      "Ġcontent": 2590,
      "ule": 2591,
      "Ġoften": 2592,
      "UR": 2593,
      "raw": 2594,
      "ĠOne": 2595,
      "Ġlog": 2596,
      "Ġur": 2597,
      "Ġalm": 2598,
      "')": 2599,
      "Ġindic": 2600,
      "ml": 2601,
      "attutto": 2602,
      "Ġautom": 2603,
      "Ġassist": 2604,
      "Ġfur": 2605,
      "oot": 2606,
      "Ġdurante": 2607,
      "Ġdays": 2608,
      "ĠMin": 2609,
      "Ġmob": 2610,
      "Ġlink": 2611,
      "Ġbisog": 2612,
      "elo": 2613,
      "Ġesc": 2614,
      "ĠThat": 2615,
      "ah": 2616,
      "Ġprefer": 2617,
      "uso": 2618,
      "una": 2619,
      "ĠTe": 2620,
      "Ġchange": 2621,
      "Data": 2622,
      "the": 2623,
      "Ġtutta": 2624,
      "Ġum": 2625,
      "Ġlooking": 2626,
      "ppo": 2627,
      "uf": 2628,
      "ify": 2629,
      "ope": 2630,
      "Ġservizi": 2631,
      "erra": 2632,
      "ĠCas": 2633,
      "Ġreport": 2634,
      "ĠMed": 2635,
      "Ġprogetto": 2636,
      "ĠNov": 2637,
      "ams": 2638,
      "Ġtreat": 2639,
      "vironment": 2640,
      "ĠDo": 2641,
      "Ch": 2642,
      "sw": 2643,
      "unque": 2644,
      "Ġchang": 2645,
      "Ġfocus": 2646,
      "ffic": 2647,
      "Ġesempio": 2648,
      "bab": 2649,
      "Ġpack": 2650,
      "....": 2651,
      "Ġmaggio": 2652,
      "Ġjob": 2653,
      "Ġtool": 2654,
      "getti": 2655,
      "Ġinizi": 2656,
      "Ġprint": 2657,
      "Ġstati": 2658,
      "Ġintegr": 2659,
      "idd": 2660,
      "Ġ?": 2661,
      "Ġanim": 2662,
      "ersi": 2663,
      "ieve": 2664,
      "Ġrisult": 2665,
      "ination": 2666,
      "Ġvu": 2667,
      "by": 2668,
      "ogn": 2669,
      "bbero": 2670,
      "top": 2671,
      "zionali": 2672,
      "Ġdeb": 2673,
      "Ġrela": 2674,
      "esc": 2675,
      "anda": 2676,
      "ĠSch": 2677,
      "iver": 2678,
      "Ġmill": 2679,
      "Ġplan": 2680,
      "vvero": 2681,
      "ĠEd": 2682,
      "ĠDefaultTrue": 2683,
      "Ġput": 2684,
      "IO": 2685,
      "Ġrichies": 2686,
      "Ġprodotti": 2687,
      "Ġprec": 2688,
      "Ġsull": 2689,
      "icro": 2690,
      "ecial": 2691,
      "Ġgest": 2692,
      "Ġmaterial": 2693,
      "ĠIm": 2694,
      "ired": 2695,
      "Ġsap": 2696,
      "Ġsince": 2697,
      "Ġuser": 2698,
      "atform": 2699,
      "Ġold": 2700,
      "Ġbro": 2701,
      "Ġconten": 2702,
      "ival": 2703,
      "gress": 2704,
      "icy": 2705,
      "ĠPl": 2706,
      "ĠGra": 2707,
      "Ġverso": 2708,
      "Ġturn": 2709,
      "Ġservizio": 2710,
      "Ġaziend": 2711,
      "Ġsite": 2712,
      "Ġparticolare": 2713,
      "ĠLeg": 2714,
      "Val": 2715,
      "Ġtuo": 2716,
      "ua": 2717,
      "Ġgiv": 2718,
      ".,": 2719,
      "ĠciÃ²": 2720,
      "utes": 2721,
      "Ġeasy": 2722,
      "Ġbody": 2723,
      "Ġmusic": 2724,
      "ettore": 2725,
      "asci": 2726,
      "perty": 2727,
      "Ġcommunity": 2728,
      "Ġna": 2729,
      "Ġmethod": 2730,
      "Ġmem": 2731,
      "umento": 2732,
      "Ġrange": 2733,
      "Ġsoprattutto": 2734,
      "ĠBu": 2735,
      "ird": 2736,
      "eter": 2737,
      "ey": 2738,
      "utions": 2739,
      "Ġriguard": 2740,
      "omb": 2741,
      "ump": 2742,
      "urale": 2743,
      "Ġbreak": 2744,
      "Ġbeh": 2745,
      "Ġcirc": 2746,
      "anze": 2747,
      "Ġsw": 2748,
      "urezza": 2749,
      "ength": 2750,
      "tazione": 2751,
      "Ġrest": 2752,
      "ership": 2753,
      "Ġricerca": 2754,
      "ĠperÃ²": 2755,
      "Ġqualche": 2756,
      "Ġvic": 2757,
      "Ġconosc": 2758,
      "Ġqueste": 2759,
      "Ġcover": 2760,
      "Ġtoday": 2761,
      "Ġsoftware": 2762,
      "Ġmen": 2763,
      "Ġatta": 2764,
      "Ġsvol": 2765,
      "ively": 2766,
      "Ġricord": 2767,
      "icazione": 2768,
      "ights": 2769,
      "Ġdetail": 2770,
      "Ġair": 2771,
      "thers": 2772,
      "Ġstudents": 2773,
      "ĠMy": 2774,
      "via": 2775,
      "eni": 2776,
      "Ġsor": 2777,
      "onom": 2778,
      "Ġtur": 2779,
      "ĠDa": 2780,
      "uali": 2781,
      "Ġdiverse": 2782,
      "Ġgrazie": 2783,
      "ranno": 2784,
      "'re": 2785,
      "tific": 2786,
      "ĠDon": 2787,
      "ĠMon": 2788,
      "ĠInter": 2789,
      "vious": 2790,
      "ania": 2791,
      "Ġraggi": 2792,
      "!!": 2793,
      "udi": 2794,
      "ggio": 2795,
      "Ġsare": 2796,
      "adre": 2797,
      "Ġven": 2798,
      "Ġcondi": 2799,
      "Ġsue": 2800,
      "ĠCap": 2801,
      "Ġpossible": 2802,
      "ording": 2803,
      "Ġsever": 2804,
      "\";": 2805,
      "ggi": 2806,
      "ury": 2807,
      "ids": 2808,
      "ĠDes": 2809,
      "Ġenjoy": 2810,
      "Ġ->": 2811,
      "Ġnegli": 2812,
      "cy": 2813,
      "Ġsqu": 2814,
      "AD": 2815,
      "ler": 2816,
      "ĠDis": 2817,
      "Ġwhy": 2818,
      "Ġten": 2819,
      "Ġoffers": 2820,
      "imin": 2821,
      "Ġhist": 2822,
      "bile": 2823,
      "www": 2824,
      "Ġcorso": 2825,
      "not": 2826,
      "OT": 2827,
      "uct": 2828,
      "AP": 2829,
      "Ġagainst": 2830,
      "lace": 2831,
      "Ġpresso": 2832,
      "Ġimportante": 2833,
      "Ġ'),": 2834,
      "ocia": 2835,
      "ilmente": 2836,
      "gether": 2837,
      "Ġpress": 2838,
      "ancial": 2839,
      "Ġarr": 2840,
      "ĠqualitÃł": 2841,
      "Ġbased": 2842,
      "Ġnever": 2843,
      "ensive": 2844,
      "Ġletter": 2845,
      "Ġbecome": 2846,
      "istica": 2847,
      "Ġinstall": 2848,
      "type": 2849,
      "ĠBo": 2850,
      "Ġinsieme": 2851,
      "Ġve": 2852,
      "olar": 2853,
      "Ġscu": 2854,
      "iting": 2855,
      "Ġstring": 2856,
      "eglio": 2857,
      "outh": 2858,
      "ologia": 2859,
      "ĠSystem": 2860,
      "anz": 2861,
      "Ġclean": 2862,
      "ĠIntern": 2863,
      "Ġdiret": 2864,
      "Ġcirca": 2865,
      "aff": 2866,
      "Res": 2867,
      "Ġsugg": 2868,
      "Ġroom": 2869,
      "ĠBar": 2870,
      "ources": 2871,
      "str": 2872,
      "Ġtry": 2873,
      "gere": 2874,
      "Ġps": 2875,
      "Ġsport": 2876,
      "Ġcapac": 2877,
      "ministr": 2878,
      "ĠFin": 2879,
      "Ġconv": 2880,
      "ĠNe": 2881,
      "Ġrin": 2882,
      "acqu": 2883,
      "Ġchildren": 2884,
      "Ġrice": 2885,
      "udio": 2886,
      "ĠMilano": 2887,
      "orre": 2888,
      "lobal": 2889,
      "Ġfra": 2890,
      "erson": 2891,
      "cia": 2892,
      "Ġprend": 2893,
      "Ġshare": 2894,
      "ĠSer": 2895,
      "Ġcourse": 2896,
      "Ġcontact": 2897,
      "af": 2898,
      "Ġwin": 2899,
      "ĠGli": 2900,
      "Ġensure": 2901,
      "Ġnostri": 2902,
      "pare": 2903,
      "ĠTut": 2904,
      "Ġfuture": 2905,
      "Ġ'-": 2906,
      "Ġlive": 2907,
      "entire": 2908,
      "Ġsemb": 2909,
      "azz": 2910,
      "ĠsocietÃł": 2911,
      "----------------": 2912,
      "To": 2913,
      "ĠGio": 2914,
      "Ġindustry": 2915,
      "Ġviol": 2916,
      "cchi": 2917,
      "span": 2918,
      "Ġsan": 2919,
      "Ġdevelopment": 2920,
      "Ġcentro": 2921,
      "Ġgames": 2922,
      "Ġmeans": 2923,
      "Ġpast": 2924,
      "arie": 2925,
      "Ġora": 2926,
      "ĠPart": 2927,
      "Ġrom": 2928,
      "Ġmulti": 2929,
      "vano": 2930,
      "ibilitÃł": 2931,
      "Ġrad": 2932,
      "Ġnumero": 2933,
      "Ġant": 2934,
      "IM": 2935,
      "zio": 2936,
      "ended": 2937,
      "Ġpal": 2938,
      "Col": 2939,
      "izzo": 2940,
      "Ġfeatures": 2941,
      "Ġtogether": 2942,
      "Get": 2943,
      "bil": 2944,
      "Ġcard": 2945,
      "Ġdispon": 2946,
      "Ġaway": 2947,
      "Ġcomes": 2948,
      "Ġreview": 2949,
      "Ġmolti": 2950,
      "ĠBound": 2951,
      "Ġpreced": 2952,
      "Ġcell": 2953,
      "View": 2954,
      "key": 2955,
      "ula": 2956,
      "ĠNot": 2957,
      "ĠEurope": 2958,
      "orno": 2959,
      "ama": 2960,
      "Ġquick": 2961,
      "Ġeffett": 2962,
      "Ġstrutt": 2963,
      "Ġfund": 2964,
      "Ġbra": 2965,
      "ĠCont": 2966,
      "ĠMi": 2967,
      "ende": 2968,
      "Ġlatitude": 2969,
      "longitude": 2970,
      "Ġchall": 2971,
      "Ġdiscuss": 2972,
      "');": 2973,
      "Ġland": 2974,
      "Ġtext": 2975,
      "Ġcertain": 2976,
      "Ġcompan": 2977,
      "Ġfollowing": 2978,
      "uri": 2979,
      "Ġpan": 2980,
      "face": 2981,
      "Ġtimes": 2982,
      "rite": 2983,
      "Ġfunzion": 2984,
      "Ġhaving": 2985,
      "Ġoptions": 2986,
      "ĠCi": 2987,
      "lude": 2988,
      ",\"": 2989,
      "imm": 2990,
      "Ġmakes": 2991,
      "ĠRec": 2992,
      "Ġmio": 2993,
      "ising": 2994,
      "Th": 2995,
      "unto": 2996,
      "perienza": 2997,
      "otel": 2998,
      "Ġproced": 2999,
      "Ġcorre": 3000,
      "ĠAdd": 3001,
      "ĠDec": 3002,
      "Ġgot": 3003,
      "ified": 3004,
      "Ġgius": 3005,
      "ĠEng": 3006,
      "Ġspesso": 3007,
      "graf": 3008,
      "asso": 3009,
      "Ġkind": 3010,
      "Ġlivello": 3011,
      "fig": 3012,
      "eto": 3013,
      "Ġcele": 3014,
      "ique": 3015,
      "Ġperfect": 3016,
      "Ġresid": 3017,
      "âĢĶ": 3018,
      "Ġalong": 3019,
      "ley": 3020,
      "Ġmind": 3021,
      "Ĥ¬": 3022,
      "Ġcittad": 3023,
      "ception": 3024,
      "Ġambi": 3025,
      "Ġaddress": 3026,
      "Ġdiversi": 3027,
      "ready": 3028,
      "Ġenc": 3029,
      "US": 3030,
      "arti": 3031,
      "onus": 3032,
      "Ġpropria": 3033,
      "////": 3034,
      "Ġinnov": 3035,
      "Ġask": 3036,
      "Ġru": 3037,
      "Ġinvol": 3038,
      "list": 3039,
      "jor": 3040,
      "Ġacross": 3041,
      "cco": 3042,
      "wards": 3043,
      "Ġvarious": 3044,
      "mon": 3045,
      "ĠEm": 3046,
      "Ġnetwork": 3047,
      "pped": 3048,
      "Ġmarketing": 3049,
      "ĠGoogle": 3050,
      "Ġallo": 3051,
      "LE": 3052,
      "Ġplatform": 3053,
      "Ġseveral": 3054,
      "Ġserie": 3055,
      "Ġdiv": 3056,
      "ched": 3057,
      "Ġmiglior": 3058,
      "Ġsize": 3059,
      "ibr": 3060,
      "Ġguid": 3061,
      "Ġcustomers": 3062,
      "ĠDr": 3063,
      "Ġcolor": 3064,
      "En": 3065,
      "orth": 3066,
      "Ġperformance": 3067,
      "Ġlow": 3068,
      "uter": 3069,
      "OS": 3070,
      "Ġenvironment": 3071,
      "interno": 3072,
      "ĠÐ": 3073,
      "ĠEl": 3074,
      "Ġsiamo": 3075,
      "Ġlarge": 3076,
      "UT": 3077,
      "Ġspace": 3078,
      "Ġaveva": 3079,
      "istiche": 3080,
      "Ġnumer": 3081,
      "Ġhouse": 3082,
      "Ġprim": 3083,
      "Ġep": 3084,
      "aring": 3085,
      "Ġhttps": 3086,
      "Ġtratta": 3087,
      "Ġdic": 3088,
      "Ġfig": 3089,
      "irect": 3090,
      "ĠAb": 3091,
      "asse": 3092,
      "Ġbal": 3093,
      "Ġexample": 3094,
      "issione": 3095,
      "Ġscor": 3096,
      "Ġflo": 3097,
      "Ġlegge": 3098,
      "hn": 3099,
      "rist": 3100,
      "Ġprobab": 3101,
      "Ġfrequ": 3102,
      "cio": 3103,
      "ĠAfter": 3104,
      "Ġinterna": 3105,
      "irst": 3106,
      "ender": 3107,
      "Ġrifer": 3108,
      "maz": 3109,
      "crib": 3110,
      "roll": 3111,
      "Ġden": 3112,
      "Ġpage": 3113,
      "Ġmeglio": 3114,
      "perti": 3115,
      "ettr": 3116,
      "eso": 3117,
      "Ġapr": 3118,
      "Â».": 3119,
      "Ġnull": 3120,
      "imon": 3121,
      "ugno": 3122,
      "Ġgrado": 3123,
      "laim": 3124,
      "ĠrealtÃł": 3125,
      "Ġdriv": 3126,
      "Ġsicurezza": 3127,
      "come": 3128,
      "htt": 3129,
      "inato": 3130,
      "side": 3131,
      "part": 3132,
      "ager": 3133,
      "Ġprepar": 3134,
      "cover": 3135,
      "bbra": 3136,
      "Ġcateg": 3137,
      "ĠpossibilitÃł": 3138,
      "ubl": 3139,
      "Ġenter": 3140,
      "Ġproblem": 3141,
      "su": 3142,
      "ican": 3143,
      "Ġquasi": 3144,
      "angu": 3145,
      "Ġcat": 3146,
      "Ġgre": 3147,
      "Ġtipo": 3148,
      "Ġricon": 3149,
      "aw": 3150,
      "Ġsettim": 3151,
      "umenti": 3152,
      "ĠChi": 3153,
      "ised": 3154,
      "Italia": 3155,
      "Ġcanc": 3156,
      "room": 3157,
      "Ġstag": 3158,
      "td": 3159,
      "Ġcookie": 3160,
      "util": 3161,
      "ada": 3162,
      "Ġquelli": 3163,
      "file": 3164,
      "Ġvolte": 3165,
      "anco": 3166,
      "Ġothers": 3167,
      "Ġviv": 3168,
      "Ġpurch": 3169,
      "Ġpoco": 3170,
      "ier": 3171,
      "Ġcontain": 3172,
      "Ġdocument": 3173,
      "Ġfalse": 3174,
      "Text": 3175,
      "agna": 3176,
      "ĠUniversity": 3177,
      "bel": 3178,
      "ĠâĢ¢": 3179,
      "Ġintro": 3180,
      "ffer": 3181,
      "tembre": 3182,
      "Ġnav": 3183,
      "Ġbeaut": 3184,
      "ilities": 3185,
      "Ġeffici": 3186,
      "Ġparticular": 3187,
      "abili": 3188,
      "çļ": 3189,
      "Ġassoci": 3190,
      "ured": 3191,
      "Ġpotrebbe": 3192,
      "Ġcresc": 3193,
      "Ġmanagement": 3194,
      "çļĦ": 3195,
      "ENT": 3196,
      "OM": 3197,
      "Ġvengono": 3198,
      "We": 3199,
      "Ġpross": 3200,
      "ral": 3201,
      "AG": 3202,
      "Im": 3203,
      "naio": 3204,
      "HE": 3205,
      "Ġgioc": 3206,
      "Ġfinal": 3207,
      "Ġcity": 3208,
      "ĠMe": 3209,
      "Ġfour": 3210,
      "Ġthing": 3211,
      "Ġnatural": 3212,
      "ogra": 3213,
      "head": 3214,
      "ĠPost": 3215,
      "Ġlarg": 3216,
      "Ġvo": 3217,
      "Ġmercato": 3218,
      "Ġgrandi": 3219,
      "Ġbambini": 3220,
      "atico": 3221,
      "Ġ},": 3222,
      "Ġimprov": 3223,
      "Ġside": 3224,
      "Ġpati": 3225,
      "Ġbit": 3226,
      "orld": 3227,
      "';": 3228,
      "Ġist": 3229,
      "elling": 3230,
      "ĠRed": 3231,
      "Ġinterv": 3232,
      "ĠÂ°": 3233,
      "Ġred": 3234,
      "Ġregion": 3235,
      "Ġtechnology": 3236,
      "ettivo": 3237,
      "Ġexpert": 3238,
      "Ġtanto": 3239,
      "Ġalready": 3240,
      "Ġrelations": 3241,
      "ief": 3242,
      "Ġord": 3243,
      "uck": 3244,
      "Ġcostru": 3245,
      "loc": 3246,
      "alk": 3247,
      "Ġinteress": 3248,
      "word": 3249,
      "Ġmach": 3250,
      "iscono": 3251,
      "Ġgrat": 3252,
      "Ġfavor": 3253,
      "ĠMay": 3254,
      "ĠUs": 3255,
      "Ġcompanies": 3256,
      "Ġsott": 3257,
      "Ġshort": 3258,
      "ases": 3259,
      "Ġdeal": 3260,
      "chia": 3261,
      "ories": 3262,
      "Ġextra": 3263,
      "Ġpubblico": 3264,
      "Ġfield": 3265,
      "ones": 3266,
      "itore": 3267,
      "Ġosp": 3268,
      "Ġimpact": 3269,
      "Ġmean": 3270,
      "ttobre": 3271,
      "Ġrecomm": 3272,
      "Ġcand": 3273,
      "Ġunique": 3274,
      "lor": 3275,
      "ĠWhile": 3276,
      "Ġquelle": 3277,
      "Ġmodel": 3278,
      "Ġspir": 3279,
      "ectr": 3280,
      "ibility": 3281,
      "ability": 3282,
      "Ġmaggior": 3283,
      "========": 3284,
      "Ġmesi": 3285,
      "string": 3286,
      "inf": 3287,
      "ĠSono": 3288,
      "cription": 3289,
      "Ġdone": 3290,
      "cci": 3291,
      "Ġgetting": 3292,
      "Ġcountry": 3293,
      "lect": 3294,
      "Ġsus": 3295,
      "Ġmac": 3296,
      "ouble": 3297,
      "egno": 3298,
      "itale": 3299,
      "issimo": 3300,
      "Ġsaranno": 3301,
      "Ġimmag": 3302,
      "value": 3303,
      "ugg": 3304,
      "Ġdistrib": 3305,
      "Ġnews": 3306,
      "ensione": 3307,
      "bbraio": 3308,
      "imate": 3309,
      "cl": 3310,
      "Ġciv": 3311,
      "Ġactually": 3312,
      "action": 3313,
      "Ġterritorio": 3314,
      "Ġamount": 3315,
      "ĠEs": 3316,
      "Ġprovides": 3317,
      "raft": 3318,
      "ulation": 3319,
      "Ġtrattamento": 3320,
      "stit": 3321,
      "ritti": 3322,
      "Ġcu": 3323,
      "Ġleft": 3324,
      "Ġfinancial": 3325,
      "Ġperd": 3326,
      "ecc": 3327,
      "Ġresults": 3328,
      "duce": 3329,
      "altro": 3330,
      "rese": 3331,
      "qual": 3332,
      "ervice": 3333,
      "Ġmia": 3334,
      "Ġperiod": 3335,
      "Ġissues": 3336,
      "ects": 3337,
      "Ġstudio": 3338,
      "user": 3339,
      "App": 3340,
      "Ġprice": 3341,
      "Ġimmedi": 3342,
      "ĠGod": 3343,
      "Ġsearch": 3344,
      "acter": 3345,
      "ardi": 3346,
      "Ġenergy": 3347,
      "Ġeurope": 3348,
      "ĠAc": 3349,
      "osci": 3350,
      "Par": 3351,
      "Ġcommon": 3352,
      "Ġtecnolog": 3353,
      "Ġuntil": 3354,
      "ĠPal": 3355,
      "vere": 3356,
      "ĠAN": 3357,
      "gia": 3358,
      "asing": 3359,
      "Ġtarget": 3360,
      "Ġprofessional": 3361,
      "ande": 3362,
      "ulla": 3363,
      "Ġstrong": 3364,
      "Ġdip": 3365,
      "Ġstessa": 3366,
      "Ġcambi": 3367,
      "Ġbuy": 3368,
      "Ġmajor": 3369,
      "Ġrema": 3370,
      "ests": 3371,
      "ref": 3372,
      "alf": 3373,
      "An": 3374,
      "uov": 3375,
      "Ġsaf": 3376,
      "ĠDel": 3377,
      "Ġpotential": 3378,
      "uary": 3379,
      "Ġprevent": 3380,
      "Ġfis": 3381,
      "Ġtua": 3382,
      "Ġelettr": 3383,
      "Ġposto": 3384,
      "urance": 3385,
      "Ġ<<": 3386,
      "Ġlui": 3387,
      "ty": 3388,
      "Ġsum": 3389,
      "Ġblog": 3390,
      "Ġporta": 3391,
      "Ġstyle": 3392,
      "ecut": 3393,
      "Ġcustomer": 3394,
      "Ġpresente": 3395,
      "Ġprodotto": 3396,
      "ache": 3397,
      "Ġcompon": 3398,
      "eva": 3399,
      "Ġsays": 3400,
      "Ġseguito": 3401,
      "Ġtor": 3402,
      "Ġsettore": 3403,
      "egna": 3404,
      "ĠCos": 3405,
      "Ġoccas": 3406,
      "Ġva": 3407,
      "opt": 3408,
      "Ġdate": 3409,
      "Ġfore": 3410,
      "Ġseason": 3411,
      "ardo": 3412,
      "Ġpiano": 3413,
      "Ġir": 3414,
      "lice": 3415,
      "Ġmat": 3416,
      "rea": 3417,
      "ls": 3418,
      "rest": 3419,
      "acebook": 3420,
      "Ġpat": 3421,
      "Ġenough": 3422,
      "Ġdetto": 3423,
      "Ġbegin": 3424,
      "Ġcasino": 3425,
      "now": 3426,
      "ĠâĤ¬": 3427,
      "Ġnome": 3428,
      "uglio": 3429,
      "Ġsignificant": 3430,
      "Ðµ": 3431,
      "resh": 3432,
      "IG": 3433,
      "Ġwomen": 3434,
      "ghi": 3435,
      "rem": 3436,
      "ĠTor": 3437,
      "ouch": 3438,
      "Ġanti": 3439,
      "ha": 3440,
      "ĠSome": 3441,
      "Ġalcune": 3442,
      "Ġbring": 3443,
      "ledge": 3444,
      "gr": 3445,
      "Ġperiodo": 3446,
      "EM": 3447,
      "Ġcerc": 3448,
      "Ġdol": 3449,
      "Ġhold": 3450,
      "IV": 3451,
      "Ġorigin": 3452,
      "ttamente": 3453,
      "Ġoffic": 3454,
      "siasi": 3455,
      "Ġspieg": 3456,
      "Ġmilioni": 3457,
      "Ġage": 3458,
      "Ġusers": 3459,
      "umber": 3460,
      "Ġrequired": 3461,
      "Ġlik": 3462,
      "EO": 3463,
      "ĠMore": 3464,
      "Al": 3465,
      "Ġknown": 3466,
      "UN": 3467,
      "ends": 3468,
      "iter": 3469,
      "ĠHere": 3470,
      "Ġarch": 3471,
      "Ġoccup": 3472,
      "Ġtax": 3473,
      "Ġdigital": 3474,
      "aco": 3475,
      "Ġnuovi": 3476,
      "Ġvista": 3477,
      "ides": 3478,
      "antag": 3479,
      "amm": 3480,
      "Ġpersona": 3481,
      "oud": 3482,
      "Ġunivers": 3483,
      "print": 3484,
      "adem": 3485,
      "Ġobject": 3486,
      "ĠApr": 3487,
      "ators": 3488,
      "aci": 3489,
      "Ġgruppo": 3490,
      "itato": 3491,
      "Ġrefer": 3492,
      "Ġgl": 3493,
      "Ġsegn": 3494,
      "ivity": 3495,
      "arli": 3496,
      "Ġoss": 3497,
      "Ġdonne": 3498,
      "tml": 3499,
      "Ġaltern": 3500,
      "onti": 3501,
      "ĠInc": 3502,
      "Ġmanc": 3503,
      "enz": 3504,
      "Ġfamiglia": 3505,
      "Ġtrack": 3506,
      "lin": 3507,
      "entr": 3508,
      "order": 3509,
      "Ġfinanzi": 3510,
      "Ġerr": 3511,
      "Ġcose": 3512,
      "Ġprogramma": 3513,
      "ĠTw": 3514,
      "Ġinflu": 3515,
      "Ġnuove": 3516,
      "edia": 3517,
      "Ġness": 3518,
      "ian": 3519,
      "Ġever": 3520,
      "ither": 3521,
      "Ġfla": 3522,
      "Ġrivol": 3523,
      "Ġrele": 3524,
      "arlo": 3525,
      "Ġtale": 3526,
      "oung": 3527,
      "ĠÂ»": 3528,
      "++": 3529,
      "Ġstruct": 3530,
      "Ġdiritto": 3531,
      "ention": 3532,
      "roid": 3533,
      "Ġfos": 3534,
      "lig": 3535,
      "rire": 3536,
      "Ġtradi": 3537,
      "Ġtraining": 3538,
      "atte": 3539,
      "Ġpopular": 3540,
      "Ġstory": 3541,
      "ĠĠĠĠĠĠĠĠĠĠĠĠĠĠĠĠĠĠĠĠĠĠĠĠĠĠĠĠĠĠĠĠ": 3542,
      "ĠBl": 3543,
      "Ġling": 3544,
      "Ġcura": 3545,
      "ilia": 3546,
      "php": 3547,
      "Ġsin": 3548,
      "Ġrelationship": 3549,
      "izing": 3550,
      "ota": 3551,
      "fort": 3552,
      "Ġsecurity": 3553,
      "ba": 3554,
      "Ġdeg": 3555,
      "Ġmarzo": 3556,
      "Ġdoing": 3557,
      "resa": 3558,
      "Ġonce": 3559,
      "ived": 3560,
      "ĠAv": 3561,
      "Ġwhether": 3562,
      "Ġchoose": 3563,
      "ĠJohn": 3564,
      "azio": 3565,
      "ald": 3566,
      "alla": 3567,
      "Ġpercent": 3568,
      "Ġcalled": 3569,
      "right": 3570,
      "evel": 3571,
      "Ġey": 3572,
      "Ġclos": 3573,
      "abilitÃł": 3574,
      "Ġmani": 3575,
      "Ġhours": 3576,
      "Ġqualsiasi": 3577,
      "ĠCamp": 3578,
      "Ġcou": 3579,
      "Ġmembers": 3580,
      "izzata": 3581,
      "yl": 3582,
      "LA": 3583,
      "ĠNews": 3584,
      "Ġsingle": 3585,
      "Ġvost": 3586,
      "Ġfarm": 3587,
      "Ġlungo": 3588,
      "ĠAut": 3589,
      "Ġnecessario": 3590,
      "Ġgioco": 3591,
      "uly": 3592,
      "orse": 3593,
      "ester": 3594,
      "Ġscr": 3595,
      "rebbero": 3596,
      "Ġexpect": 3597,
      "Ġprior": 3598,
      "ĠSm": 3599,
      "igr": 3600,
      "Ġelectr": 3601,
      "tanto": 3602,
      "ĠĠĠĠĠĠĠĠĠĠĠĠ": 3603,
      "CH": 3604,
      "ands": 3605,
      "size": 3606,
      "ilt": 3607,
      "Ġpersonale": 3608,
      "onto": 3609,
      "urre": 3610,
      "Ġmanif": 3611,
      "ision": 3612,
      "Ġrap": 3613,
      "istenza": 3614,
      "ix": 3615,
      "Ð°": 3616,
      "idth": 3617,
      "Ġprote": 3618,
      "Ġrecord": 3619,
      "Ġgovernment": 3620,
      "ĠMod": 3621,
      "Ġjour": 3622,
      "uit": 3623,
      "Ġvirt": 3624,
      "Ġreason": 3625,
      "Or": 3626,
      "Ġteach": 3627,
      "earch": 3628,
      "EG": 3629,
      "ecially": 3630,
      "Ġemerg": 3631,
      "Ġsem": 3632,
      "rove": 3633,
      "ĠGen": 3634,
      "Ġmax": 3635,
      "Ġterra": 3636,
      "ĠCr": 3637,
      "Ġcod": 3638,
      "Ġach": 3639,
      "umm": 3640,
      "Ġdare": 3641,
      "ĠGener": 3642,
      "aging": 3643,
      "ips": 3644,
      "ication": 3645,
      "anced": 3646,
      "ening": 3647,
      "fun": 3648,
      "Ġ!=": 3649,
      "ĠDep": 3650,
      "Ġsper": 3651,
      "Ġfall": 3652,
      "ĠAtt": 3653,
      "bject": 3654,
      "Ġ\",": 3655,
      "quest": 3656,
      "La": 3657,
      "remo": 3658,
      "Ġseconda": 3659,
      "Ġtour": 3660,
      "Ġproperty": 3661,
      "Ġsviluppo": 3662,
      "Ġchiam": 3663,
      "ules": 3664,
      "Ġheart": 3665,
      "Ġbuilding": 3666,
      "Ġmonths": 3667,
      "Ġpen": 3668,
      "ING": 3669,
      "Ġidea": 3670,
      "Ð¾": 3671,
      "ria": 3672,
      "Ġdoesn": 3673,
      "().": 3674,
      "Ġtab": 3675,
      "iali": 3676,
      "posta": 3677,
      "ĠString": 3678,
      "Ġdif": 3679,
      "Ġsil": 3680,
      "irus": 3681,
      "ened": 3682,
      "ective": 3683,
      "Ġfer": 3684,
      "ait": 3685,
      "Ġdichi": 3686,
      "Ġauthor": 3687,
      "Ġlibro": 3688,
      "isto": 3689,
      "ĠAnche": 3690,
      "Ġcause": 3691,
      "atus": 3692,
      "Ġfel": 3693,
      "ĠVer": 3694,
      "olid": 3695,
      "Value": 3696,
      "resso": 3697,
      "ĠMus": 3698,
      "II": 3699,
      "edÃ¬": 3700,
      "Ġrole": 3701,
      "Ġfurther": 3702,
      "Ġhuman": 3703,
      "Ġmeas": 3704,
      "Ġquestions": 3705,
      "Ġtemper": 3706,
      "aking": 3707,
      "au": 3708,
      "Ġsimple": 3709,
      "Ġgiven": 3710,
      "Ġevid": 3711,
      "Ġio": 3712,
      "ros": 3713,
      "RA": 3714,
      "Ġdam": 3715,
      "ordo": 3716,
      "Ġved": 3717,
      "ufact": 3718,
      "Ġrisk": 3719,
      "altra": 3720,
      "Ġsarebbe": 3721,
      "Ġvisto": 3722,
      "Ġstaff": 3723,
      "Ġareas": 3724,
      "otta": 3725,
      "ĠPe": 3726,
      "Ġgir": 3727,
      "Ġcomplete": 3728,
      "Ġtram": 3729,
      "Ġstandard": 3730,
      "Ġjo": 3731,
      "Ġ&&": 3732,
      "icolo": 3733,
      "Ġposition": 3734,
      "Ġresta": 3735,
      "astic": 3736,
      "Ġraccol": 3737,
      "Ġbrow": 3738,
      "illi": 3739,
      "cegli": 3740,
      "Ġeffettu": 3741,
      "Ġbelow": 3742,
      "Ġleast": 3743,
      "Ġ--": 3744,
      "Ġparent": 3745,
      "Ġamong": 3746,
      "ĠGet": 3747,
      "Ġstarted": 3748,
      "Ġdownload": 3749,
      "Ġsenso": 3750,
      "agine": 3751,
      "Ġorg": 3752,
      "usi": 3753,
      "Ġder": 3754,
      "ĠFacebook": 3755,
      "izzati": 3756,
      "Ġpresenza": 3757,
      "ox": 3758,
      "auto": 3759,
      "ostr": 3760,
      "ĠInf": 3761,
      "Ġeverything": 3762,
      "ĠFrances": 3763,
      "Ġaction": 3764,
      "Ġmatter": 3765,
      "Ġpred": 3766,
      "cast": 3767,
      "ient": 3768,
      "Ġtravel": 3769,
      "Ġnight": 3770,
      "Ġfit": 3771,
      "Ġappear": 3772,
      "Ġyourself": 3773,
      "Ġclear": 3774,
      "Ġpolitica": 3775,
      "ĠDopo": 3776,
      "Ġsat": 3777,
      "Ġstatic": 3778,
      "'ve": 3779,
      "Ġmillion": 3780,
      "umn": 3781,
      "Ġcontinue": 3782,
      "bra": 3783,
      "aly": 3784,
      "Ġphys": 3785,
      "Ġconcern": 3786,
      "Ġparl": 3787,
      "Ġril": 3788,
      "Ġlater": 3789,
      "Ġcampo": 3790,
      "Ġsociale": 3791,
      "Ġlimit": 3792,
      "ZION": 3793,
      "umin": 3794,
      "estival": 3795,
      "fil": 3796,
      "Ġconsegu": 3797,
      "='": 3798,
      "ĠDio": 3799,
      "Ġstamp": 3800,
      "itter": 3801,
      "Ġsche": 3802,
      "Ġapplication": 3803,
      "IP": 3804,
      "Ġbonus": 3805,
      "Ġcostitu": 3806,
      "Ġguard": 3807,
      "\"]": 3808,
      "ĠFrom": 3809,
      "rog": 3810,
      "><": 3811,
      "Ġbenefits": 3812,
      "Ġways": 3813,
      "tabl": 3814,
      "hic": 3815,
      "Ġpresidente": 3816,
      "åı": 3817,
      "Ass": 3818,
      "Ġban": 3819,
      "cur": 3820,
      "istic": 3821,
      "unch": 3822,
      "Ġvero": 3823,
      "Ġlov": 3824,
      "iful": 3825,
      "Ġdato": 3826,
      "ĠVi": 3827,
      "ball": 3828,
      "ĠAng": 3829,
      "Ġnazionale": 3830,
      "Ġinternet": 3831,
      "ĠDEL": 3832,
      "ology": 3833,
      "Ġvedere": 3834,
      "Ġsepar": 3835,
      "istrazione": 3836,
      "ĠDav": 3837,
      "Ġsvilupp": 3838,
      "illed": 3839,
      "Ġproduzione": 3840,
      "ĠGe": 3841,
      "eli": 3842,
      "Ġtaking": 3843,
      "Ġpersonali": 3844,
      "Ġgestione": 3845,
      "istico": 3846,
      "Ġincrease": 3847,
      "ociazione": 3848,
      "Ġcomunque": 3849,
      "ĠCON": 3850,
      "emo": 3851,
      "ĠVia": 3852,
      "sa": 3853,
      "Ġcoin": 3854,
      "cosa": 3855,
      "Ġerano": 3856,
      "erci": 3857,
      "Ġdir": 3858,
      "Ġnasc": 3859,
      "Ġgas": 3860,
      "Ġscelta": 3861,
      "Ġdagli": 3862,
      "ĠUnited": 3863,
      "Ġriusc": 3864,
      "truction": 3865,
      "erap": 3866,
      "Ġearly": 3867,
      "ĠYork": 3868,
      "orie": 3869,
      "des": 3870,
      "itto": 3871,
      "isa": 3872,
      "Ġsystems": 3873,
      "Ġdavvero": 3874,
      "Ġ/*": 3875,
      "Ġcontem": 3876,
      "tere": 3877,
      "ĠNow": 3878,
      "ĠNat": 3879,
      "Ġsac": 3880,
      "Ġvinc": 3881,
      "Ġluogo": 3882,
      "Ġcasi": 3883,
      "Ġdisp": 3884,
      "Ġplayers": 3885,
      "ĠAL": 3886,
      "Ġsiano": 3887,
      "Ġul": 3888,
      "****************": 3889,
      "Ġenh": 3890,
      "itle": 3891,
      "ĠAmerican": 3892,
      "Ġcausa": 3893,
      "Ġmobile": 3894,
      "Ġpercorso": 3895,
      "param": 3896,
      "Ġdent": 3897,
      "Ġbag": 3898,
      "Ġsosten": 3899,
      "late": 3900,
      "Ġdesigned": 3901,
      "Ġtrovare": 3902,
      "Ġpul": 3903,
      "omini": 3904,
      "'ll": 3905,
      "Ġstay": 3906,
      "Ġmedi": 3907,
      "ema": 3908,
      "Ġsembra": 3909,
      "Ġnavig": 3910,
      "ĠSta": 3911,
      "></": 3912,
      "ami": 3913,
      "Ġfuori": 3914,
      "atiche": 3915,
      "itivo": 3916,
      "Ġquot": 3917,
      "itional": 3918,
      "incia": 3919,
      "aps": 3920,
      "Ġsound": 3921,
      "agement": 3922,
      "Ġsopra": 3923,
      "Ġrequest": 3924,
      "aving": 3925,
      "class": 3926,
      "ĠÂ·": 3927,
      "omes": 3928,
      "Ġworks": 3929,
      "Ġgiud": 3930,
      "Ġscuola": 3931,
      "Ġhttp": 3932,
      "ners": 3933,
      "Ġfuturo": 3934,
      "Ġclients": 3935,
      "Ġabove": 3936,
      "Ġhistory": 3937,
      "Ġwon": 3938,
      "essage": 3939,
      "Ġstep": 3940,
      "Ġful": 3941,
      "Ġstudy": 3942,
      "Ġbatter": 3943,
      "ĠST": 3944,
      "Ġinsp": 3945,
      "Ġchalleng": 3946,
      "Ġsuccesso": 3947,
      "Ġpath": 3948,
      "Ġespecially": 3949,
      "ader": 3950,
      "ground": 3951,
      "bility": 3952,
      "Ġmaintain": 3953,
      "Ġclaim": 3954,
      "Ġparole": 3955,
      "tagon": 3956,
      "rame": 3957,
      "oti": 3958,
      "'m": 3959,
      "Ġproblema": 3960,
      "Ġgrowth": 3961,
      "ĠImp": 3962,
      "Ġmatch": 3963,
      "utton": 3964,
      "vest": 3965,
      "Ġconfron": 3966,
      "Ġparticip": 3967,
      "ĠSet": 3968,
      "Ġdog": 3969,
      "indows": 3970,
      "bol": 3971,
      "Com": 3972,
      "Ġoil": 3973,
      "Ġsmart": 3974,
      "Ġincon": 3975,
      "Ġallows": 3976,
      "Ġquant": 3977,
      "Ġfant": 3978,
      "ĠColle": 3979,
      "Ġpoter": 3980,
      "Ġmiss": 3981,
      "Ġnut": 3982,
      "ĠSk": 3983,
      "iesa": 3984,
      "Ġfem": 3985,
      "orta": 3986,
      "urg": 3987,
      "By": 3988,
      "Ġbott": 3989,
      "ression": 3990,
      "oca": 3991,
      "Ġmigliori": 3992,
      "Ġfondament": 3993,
      "Ġoption": 3994,
      "Ġtas": 3995,
      "Ġcolleg": 3996,
      "sub": 3997,
      "bit": 3998,
      "itted": 3999,
      "Ġdice": 4000,
      "OD": 4001,
      "ĠSci": 4002,
      "ĠProv": 4003,
      "Il": 4004,
      "include": 4005,
      "Ġscop": 4006,
      "Ġlay": 4007,
      "Ġfast": 4008,
      "Ġcorpo": 4009,
      "Ġyet": 4010,
      "ding": 4011,
      "Ġstudi": 4012,
      "ĠWorld": 4013,
      "ellig": 4014,
      "Ġexist": 4015,
      "Ġconserv": 4016,
      "Ġtorn": 4017,
      "into": 4018,
      "Ġdepos": 4019,
      "Ġcomputer": 4020,
      "Ġarticle": 4021,
      "Ġaiut": 4022,
      "unci": 4023,
      "atro": 4024,
      "Ġlic": 4025,
      "ĠCity": 4026,
      "Ġdidn": 4027,
      "Ġscient": 4028,
      "anca": 4029,
      "Ġvalore": 4030,
      "Ġsess": 4031,
      "Item": 4032,
      "uomo": 4033,
      "Ġlearning": 4034,
      "Ġgiovani": 4035,
      "));": 4036,
      "Ġamb": 4037,
      "Ġansw": 4038,
      "Ġmove": 4039,
      "cing": 4040,
      "Ġsubito": 4041,
      "Ġstore": 4042,
      "attro": 4043,
      "def": 4044,
      "ike": 4045,
      "Ġquestion": 4046,
      "Ġtend": 4047,
      "mod": 4048,
      "Ġpick": 4049,
      "itial": 4050,
      "Ġknowledge": 4051,
      "Ġquar": 4052,
      "Ġpartner": 4053,
      "ony": 4054,
      "omi": 4055,
      "Ġengine": 4056,
      "Ġskin": 4057,
      "Ġavv": 4058,
      "Ġ///": 4059,
      "redi": 4060,
      "Ġlasci": 4061,
      "Ġitaliano": 4062,
      "umb": 4063,
      "ĠStr": 4064,
      "Ġproblemi": 4065,
      "Ġbisogno": 4066,
      "ilar": 4067,
      "asta": 4068,
      "OC": 4069,
      "tead": 4070,
      "selves": 4071,
      "bbiamo": 4072,
      "Ġsomeone": 4073,
      "path": 4074,
      "Ġgam": 4075,
      "Ġhost": 4076,
      "Ġpresenti": 4077,
      "Ġskills": 4078,
      "Ġtag": 4079,
      "inare": 4080,
      "Ġface": 4081,
      "ĠQuesta": 4082,
      "ires": 4083,
      "off": 4084,
      "ification": 4085,
      "ql": 4086,
      "Ġsituazione": 4087,
      "Ġcandid": 4088,
      "icamente": 4089,
      "ĠAct": 4090,
      "Ġloss": 4091,
      "Ġvog": 4092,
      "Ġspazio": 4093,
      "ension": 4094,
      "box": 4095,
      "icare": 4096,
      "osta": 4097,
      "atorio": 4098,
      "Ġtreatment": 4099,
      "ĠRev": 4100,
      "ken": 4101,
      "Ġraggiung": 4102,
      "Ġprovided": 4103,
      "Ġneeded": 4104,
      "cont": 4105,
      "bu": 4106,
      "Ġstress": 4107,
      "met": 4108,
      "Ġlikely": 4109,
      "anguage": 4110,
      "Ġphoto": 4111,
      "Ġprevis": 4112,
      "iction": 4113,
      "urali": 4114,
      "Ġmano": 4115,
      "){": 4116,
      "Ġimprove": 4117,
      "Ġgenerale": 4118,
      "anning": 4119,
      "ĠCer": 4120,
      "este": 4121,
      "ube": 4122,
      "index": 4123,
      "Ġconsigli": 4124,
      "olari": 4125,
      "ille": 4126,
      "Ġconnect": 4127,
      "ĠGiov": 4128,
      "ettura": 4129,
      "code": 4130,
      "Ġcondizioni": 4131,
      "ged": 4132,
      "Ġcommerc": 4133,
      "Ġapproach": 4134,
      "test": 4135,
      "graph": 4136,
      "AB": 4137,
      "ĠQuando": 4138,
      "Ġconven": 4139,
      "Ġestabl": 4140,
      "Ġsimply": 4141,
      "Ġtable": 4142,
      "imum": 4143,
      "Ġessential": 4144,
      "Ġcamb": 4145,
      "colo": 4146,
      "Ġfront": 4147,
      "reet": 4148,
      "nal": 4149,
      "ishing": 4150,
      "ĠĠĠĠĠĠĠĠĠĠĠĠĠĠĠĠĠĠĠĠĠĠĠĠĠĠĠ": 4151,
      "Ġfeature": 4152,
      "though": 4153,
      "light": 4154,
      "artment": 4155,
      "Ġincludes": 4156,
      "Ġom": 4157,
      "Ġtim": 4158,
      "Ġsei": 4159,
      "Ġspecif": 4160,
      "[\"": 4161,
      "irm": 4162,
      "Ġqualcosa": 4163,
      "Ġfail": 4164,
      "ises": 4165,
      "Ġalmeno": 4166,
      "Ġtramite": 4167,
      "ensioni": 4168,
      "SE": 4169,
      "Ġsind": 4170,
      "html": 4171,
      "comp": 4172,
      "Ġformazione": 4173,
      "bili": 4174,
      "Ġusc": 4175,
      "Ġge": 4176,
      "care": 4177,
      "istem": 4178,
      "Ġinser": 4179,
      "Ġapprov": 4180,
      "Ġcoinvol": 4181,
      "Ġevents": 4182,
      "Ġwhole": 4183,
      "Ġtools": 4184,
      "mai": 4185,
      "Ġinoltre": 4186,
      "Ġmant": 4187,
      "ĠItali": 4188,
      "Ġthought": 4189,
      "ĠHealth": 4190,
      "ĠWeb": 4191,
      "ĠProf": 4192,
      "Ġscegli": 4193,
      "Ġprogress": 4194,
      "Ġcollect": 4195,
      "Ġĉĉĉĉĉĉ": 4196,
      "Ġrate": 4197,
      "Ġvel": 4198,
      "ĠGerm": 4199,
      "Ġscar": 4200,
      "Ġsym": 4201,
      "Ġregular": 4202,
      "assi": 4203,
      "Ġconvers": 4204,
      "Ġsettembre": 4205,
      "Ġsod": 4206,
      "vole": 4207,
      "cho": 4208,
      "Ġimplement": 4209,
      "Ġplease": 4210,
      "Ġpubblica": 4211,
      "lient": 4212,
      "ious": 4213,
      "Ġtermine": 4214,
      "Ġproviding": 4215,
      "Ġtell": 4216,
      "Ġ/**": 4217,
      "Ġactivities": 4218,
      "Ġcame": 4219,
      "zienda": 4220,
      "Ġindividuals": 4221,
      "Ġeveryone": 4222,
      "ostante": 4223,
      "ĠOp": 4224,
      "Ind": 4225,
      "Ġcredit": 4226,
      "Ġsuccessful": 4227,
      "Ġfive": 4228,
      "Ġtotal": 4229,
      "Ġsemplice": 4230,
      "At": 4231,
      "Ġdicembre": 4232,
      "eth": 4233,
      "arte": 4234,
      "Ġsuggest": 4235,
      "ĠArt": 4236,
      "Sh": 4237,
      "Ġaper": 4238,
      "ĠTech": 4239,
      "Ġglobal": 4240,
      "Ġrecent": 4241,
      "Ġregard": 4242,
      "ĠAustr": 4243,
      "ĠJan": 4244,
      "izie": 4245,
      "Ġchanges": 4246,
      "rap": 4247,
      "Ġmolte": 4248,
      "Ġsb": 4249,
      "Ġpunti": 4250,
      "Ġang": 4251,
      "Add": 4252,
      "iglie": 4253,
      "Ġgiugno": 4254,
      "':": 4255,
      "Ġmonitor": 4256,
      "Ġesclus": 4257,
      "eranno": 4258,
      "Ġlegal": 4259,
      "Ġvitt": 4260,
      "Ġpros": 4261,
      "Ġfirm": 4262,
      "ĠArtic": 4263,
      "Ġtypes": 4264,
      "board": 4265,
      "Ġentire": 4266,
      "Ġdetails": 4267,
      "Ġequip": 4268,
      "Ġcount": 4269,
      "Ġreceive": 4270,
      "Ġchoice": 4271,
      "Ġruolo": 4272,
      "ĠTV": 4273,
      "Ġeither": 4274,
      "Ġminutes": 4275,
      "Ġappre": 4276,
      "Ġfriends": 4277,
      "Ġsale": 4278,
      "public": 4279,
      "yd": 4280,
      "Ġyoung": 4281,
      "ĠCam": 4282,
      "Ġdecid": 4283,
      "ĠEr": 4284,
      "ĠLib": 4285,
      "Ġlocation": 4286,
      "Ġeffective": 4287,
      "Ġabs": 4288,
      "usto": 4289,
      "rel": 4290,
      "Time": 4291,
      "Ġhigher": 4292,
      "Ġelem": 4293,
      "Ġpremi": 4294,
      "Ġconditions": 4295,
      "Ġconsent": 4296,
      "where": 4297,
      "ualmente": 4298,
      "Ġgennaio": 4299,
      "Ġmusica": 4300,
      "Ġliving": 4301,
      "ĠMost": 4302,
      "ĠJust": 4303,
      "ĠLA": 4304,
      "Ġwatch": 4305,
      "onder": 4306,
      "body": 4307,
      "Ġadditional": 4308,
      "Ġblack": 4309,
      "Ġhowever": 4310,
      "Ġtroppo": 4311,
      "istra": 4312,
      "Ġseen": 4313,
      "ĠState": 4314,
      "bblig": 4315,
      "ĠWork": 4316,
      "ppe": 4317,
      "omin": 4318,
      "ĠCast": 4319,
      "Ġcode": 4320,
      "Ġproblems": 4321,
      "Ġmedical": 4322,
      "eric": 4323,
      "Ġultimi": 4324,
      "eggi": 4325,
      "reto": 4326,
      "Ġstrada": 4327,
      "Ġrischio": 4328,
      "Ġsle": 4329,
      "ĠMag": 4330,
      "Ġbeautiful": 4331,
      "based": 4332,
      "ĠNational": 4333,
      "Ġmanufact": 4334,
      "pper": 4335,
      "Ġ});": 4336,
      "Ġbox": 4337,
      "Ġetc": 4338,
      "Ġpolicy": 4339,
      "Ġcoll": 4340,
      "Ġvehic": 4341,
      "Ġopportunity": 4342,
      "Ġpreved": 4343,
      "Ġsafe": 4344,
      "ĠFil": 4345,
      "Ġnatura": 4346,
      "gs": 4347,
      "Ġprotagon": 4348,
      "ĠNap": 4349,
      "Ġprev": 4350,
      "Ġbud": 4351,
      "Ġserve": 4352,
      "igliore": 4353,
      "ĠDal": 4354,
      "Ġvariety": 4355,
      "Ġsalute": 4356,
      "Ġclose": 4357,
      "Ġrepresent": 4358,
      "Ġrecogn": 4359,
      "ĠPark": 4360,
      "Ġpazi": 4361,
      "isp": 4362,
      "Ġrapporto": 4363,
      "Ġaument": 4364,
      "Ġitems": 4365,
      "ĠSa": 4366,
      "issima": 4367,
      "Ġscen": 4368,
      "Ġsubject": 4369,
      "tries": 4370,
      "Ġprocesso": 4371,
      "ried": 4372,
      "Ġcy": 4373,
      "Ġregistr": 4374,
      "azzi": 4375,
      "Ġsho": 4376,
      "Ġoppure": 4377,
      "pri": 4378,
      "Ġtook": 4379,
      "Ġblock": 4380,
      "Ġbelieve": 4381,
      "state": 4382,
      "Ġcreated": 4383,
      "Ġvalut": 4384,
      "Ġrichied": 4385,
      "Ġsafety": 4386,
      "Ġcut": 4387,
      "ĠHigh": 4388,
      "Ġaccomp": 4389,
      "Ġcontract": 4390,
      "Service": 4391,
      "Ġadded": 4392,
      "ĠUN": 4393,
      "ccio": 4394,
      "itari": 4395,
      "Ġweight": 4396,
      "mio": 4397,
      "Ġnecessary": 4398,
      "leg": 4399,
      "ysis": 4400,
      "Ġottobre": 4401,
      "Ġflow": 4402,
      "rete": 4403,
      "Ġpossi": 4404,
      "Ġnear": 4405,
      "Ġmoder": 4406,
      "bon": 4407,
      "ĠUp": 4408,
      "ĠAir": 4409,
      "net": 4410,
      "Ġseries": 4411,
      "Ġcomune": 4412,
      "ĠTag": 4413,
      "Ġdifficult": 4414,
      "Ġ],": 4415,
      "ker": 4416,
      "onda": 4417,
      "Ġviaggio": 4418,
      "FF": 4419,
      "ãĢ": 4420,
      "Ġitaliana": 4421,
      "Ġsemplic": 4422,
      "ĠData": 4423,
      "down": 4424,
      "Ġimage": 4425,
      "cer": 4426,
      "urch": 4427,
      "Ġconclus": 4428,
      "Ġtempi": 4429,
      "IR": 4430,
      "Ġsales": 4431,
      "onse": 4432,
      "ĠcapacitÃł": 4433,
      "ULL": 4434,
      "Ð¸": 4435,
      "ĠOf": 4436,
      "Ġutenti": 4437,
      "CC": 4438,
      "Ġluce": 4439,
      "icato": 4440,
      "Object": 4441,
      "icol": 4442,
      "Ġthroughout": 4443,
      "Ġwww": 4444,
      "Ġeducation": 4445,
      "Ġobs": 4446,
      "rad": 4447,
      "Ġreach": 4448,
      "ĠRead": 4449,
      "ERT": 4450,
      "Ġnovembre": 4451,
      "Ġability": 4452,
      "Ġclient": 4453,
      "Ġdonna": 4454,
      "Ġvuole": 4455,
      "Ġavuto": 4456,
      "ĠAre": 4457,
      "MA": 4458,
      "Ġcuc": 4459,
      "Ġwriting": 4460,
      "Ġprimi": 4461,
      "Ġzona": 4462,
      "Ġhelps": 4463,
      "eds": 4464,
      "########": 4465,
      "Ġaziende": 4466,
      "ĠMaria": 4467,
      "Ġcontrollo": 4468,
      "olut": 4469,
      "PS": 4470,
      "Ġresponse": 4471,
      "Ġstream": 4472,
      "Ġconto": 4473,
      "ultimo": 4474,
      "ĠInt": 4475,
      "ä»": 4476,
      "Ġpain": 4477,
      "Ġoffice": 4478,
      "Ġmicro": 4479,
      "enda": 4480,
      "ĠSol": 4481,
      "Ġsource": 4482,
      "Ġapply": 4483,
      "ĠMarket": 4484,
      "Ġusually": 4485,
      "ccess": 4486,
      "ĠBlack": 4487,
      "åĪ": 4488,
      "Ġwall": 4489,
      "ponse": 4490,
      "Ġnote": 4491,
      "lood": 4492,
      "PR": 4493,
      "ĠVis": 4494,
      "over": 4495,
      "Ġforte": 4496,
      "ees": 4497,
      "ored": 4498,
      "uper": 4499,
      "Ġphone": 4500,
      "Ġimportanti": 4501,
      "Ġforse": 4502,
      "ĠQual": 4503,
      "Ġentr": 4504,
      "Ġester": 4505,
      "Ġcharacter": 4506,
      "ĠHar": 4507,
      "Ġmas": 4508,
      "Ġbusinesses": 4509,
      "Ġprevious": 4510,
      "Ġmigliore": 4511,
      "ĠMass": 4512,
      "orti": 4513,
      "ĠRic": 4514,
      "enziale": 4515,
      "Ġdecision": 4516,
      "].": 4517,
      "Ġmese": 4518,
      "Ġthird": 4519,
      "Ġvac": 4520,
      "ĠComun": 4521,
      "Ġtalk": 4522,
      "oltÃł": 4523,
      "Ġfebbraio": 4524,
      "Ġpm": 4525,
      "ĠSw": 4526,
      "atici": 4527,
      "cement": 4528,
      "Ġveg": 4529,
      "Ġgeneral": 4530,
      "cks": 4531,
      "[]": 4532,
      "Ġquattro": 4533,
      "Ġguerra": 4534,
      "uments": 4535,
      "ĠMc": 4536,
      "input": 4537,
      "Ġfo": 4538,
      "Is": 4539,
      "izioni": 4540,
      "ĠPlay": 4541,
      "Ġuffici": 4542,
      "ĠGover": 4543,
      "epend": 4544,
      "Ġaprile": 4545,
      "Ġdat": 4546,
      "Ġexcell": 4547,
      "Ġpoints": 4548,
      "ĠSouth": 4549,
      "Ġrecommend": 4550,
      "atamente": 4551,
      "Ġeasily": 4552,
      "Ġquickly": 4553,
      "ova": 4554,
      "ĠTer": 4555,
      "Qu": 4556,
      "ĠOff": 4557,
      "Ġgenere": 4558,
      "uth": 4559,
      "orsa": 4560,
      "andem": 4561,
      "Ġ};": 4562,
      "Ġready": 4563,
      "Ġmodern": 4564,
      "Ġpubl": 4565,
      "Ġversion": 4566,
      "Ġbill": 4567,
      "ado": 4568,
      "usa": 4569,
      "Ġavoid": 4570,
      "Ġterms": 4571,
      "Ġgoverno": 4572,
      "odo": 4573,
      "ĠSchool": 4574,
      "Ġinsurance": 4575,
      "Ġcelebr": 4576,
      "Ġdisplay": 4577,
      "uge": 4578,
      "Ġrisultati": 4579,
      "reng": 4580,
      "Ġdettag": 4581,
      "());": 4582,
      "ĠIL": 4583,
      "Ġriferimento": 4584,
      "Ġclienti": 4585,
      "atory": 4586,
      "Ġtrova": 4587,
      "izes": 4588,
      "ĠComune": 4589,
      "place": 4590,
      "Ġson": 4591,
      "Ġmatt": 4592,
      "Ġguida": 4593,
      "ificare": 4594,
      "enced": 4595,
      "fit": 4596,
      "Ġemot": 4597,
      "uzioni": 4598,
      "Ġago": 4599,
      "Ġforward": 4600,
      "Ġcreare": 4601,
      "Ġinn": 4602,
      "Ġfab": 4603,
      "ĠSep": 4604,
      "ĠPlease": 4605,
      "ring": 4606,
      "Ġprest": 4607,
      "alt": 4608,
      "Ġpartire": 4609,
      "Ġstagione": 4610,
      "rength": 4611,
      "Ġill": 4612,
      "Sc": 4613,
      "Ġmale": 4614,
      "Ġmedic": 4615,
      "Ġcomment": 4616,
      "Ġcio": 4617,
      "Ġtrust": 4618,
      "Ġissue": 4619,
      "ĠĠĠĠĊ": 4620,
      "Ġstop": 4621,
      "Ġamp": 4622,
      "ilit": 4623,
      "evole": 4624,
      "imal": 4625,
      "Ġtakes": 4626,
      "Ġelev": 4627,
      "Ġmachine": 4628,
      "Ġfre": 4629,
      "Ġsolutions": 4630,
      "ĠSoci": 4631,
      "ĠMart": 4632,
      "ĠĠĠĠĠĠĠĠĠĠĠĠĠ": 4633,
      "Ġpaese": 4634,
      "Ġcosts": 4635,
      "\"\"": 4636,
      "Ġvacc": 4637,
      "ermo": 4638,
      "ĠVol": 4639,
      "Ġdiritti": 4640,
      "ĠChrist": 4641,
      "Ġband": 4642,
      "Ġdevono": 4643,
      "Ġrete": 4644,
      "gen": 4645,
      "Ġgain": 4646,
      "var": 4647,
      "etr": 4648,
      "Ġtema": 4649,
      "iff": 4650,
      "Ġantic": 4651,
      "ancia": 4652,
      "Ġcuore": 4653,
      "Ġbad": 4654,
      "Ġmaterials": 4655,
      "Ġtitolo": 4656,
      "adr": 4657,
      "Ġos": 4658,
      "ka": 4659,
      "Ġcultura": 4660,
      "istro": 4661,
      "Ġottenere": 4662,
      "ĠDay": 4663,
      "ĠHa": 4664,
      "Ġvent": 4665,
      "ison": 4666,
      "Ġpractice": 4667,
      "acqua": 4668,
      "On": 4669,
      "Ġforza": 4670,
      "Ġscritto": 4671,
      "Ġrichiesta": 4672,
      "Ġluglio": 4673,
      "Ġaccording": 4674,
      "ĠĠĠĠĠĠ": 4675,
      "Ġfosse": 4676,
      "Ġexplo": 4677,
      "ĠStato": 4678,
      "Ġnostre": 4679,
      "ĠBusiness": 4680,
      "ĠHo": 4681,
      "ubblic": 4682,
      "Ġmix": 4683,
      "ĠInoltre": 4684,
      "odi": 4685,
      "Ġdeep": 4686,
      "ĠRober": 4687,
      "He": 4688,
      "ESS": 4689,
      "Ġallora": 4690,
      "Ġsint": 4691,
      "mit": 4692,
      "Ġanything": 4693,
      "Ġconsult": 4694,
      "Ġnames": 4695,
      "Ġscon": 4696,
      "cess": 4697,
      "Ġque": 4698,
      "Ġdevice": 4699,
      "osing": 4700,
      "formation": 4701,
      "Ġcatt": 4702,
      "ĠIT": 4703,
      "ĠMac": 4704,
      "Ġproduction": 4705,
      "igno": 4706,
      "ĠAug": 4707,
      "Image": 4708,
      "Ġfronte": 4709,
      "iso": 4710,
      "cce": 4711,
      "Ġwent": 4712,
      "Ġmare": 4713,
      "Ġisn": 4714,
      "Ġworth": 4715,
      "Ġlonger": 4716,
      "Ġpossa": 4717,
      "Ġproper": 4718,
      "Ġresources": 4719,
      "EST": 4720,
      "organ": 4721,
      "Ġvolont": 4722,
      "ĠMo": 4723,
      "Ġtaken": 4724,
      "Ġtitle": 4725,
      "Ġinside": 4726,
      "Ġrequirements": 4727,
      "Ġeventi": 4728,
      "ivery": 4729,
      "Ġmezzo": 4730,
      "Ġcollaborazione": 4731,
      "Ġselect": 4732,
      "ocr": 4733,
      "Ġsolution": 4734,
      "ĠMal": 4735,
      "amin": 4736,
      "uli": 4737,
      "Ġsimilar": 4738,
      "Ġarm": 4739,
      "(),": 4740,
      "Ġov": 4741,
      "Ġvide": 4742,
      "Ġwide": 4743,
      "ĠBer": 4744,
      "Ġmultiple": 4745,
      "ÑĤ": 4746,
      "Ġconsul": 4747,
      "Ġlegg": 4748,
      "LI": 4749,
      "dom": 4750,
      "ĠFrancesco": 4751,
      "ĠSil": 4752,
      "Ġlevels": 4753,
      "Ġmessage": 4754,
      "Ġfanno": 4755,
      "asto": 4756,
      "ĠIS": 4757,
      "opy": 4758,
      "Ġcittadini": 4759,
      "ettere": 4760,
      "Ġobi": 4761,
      "endere": 4762,
      "Ġaggiorn": 4763,
      "Ġquite": 4764,
      "Ġdin": 4765,
      "lies": 4766,
      "Ġpict": 4767,
      "retto": 4768,
      "Ġconsist": 4769,
      "igned": 4770,
      "Ġmaggiore": 4771,
      "Ġdefinit": 4772,
      "Ġandare": 4773,
      "Ġinj": 4774,
      "eff": 4775,
      "PO": 4776,
      "icon": 4777,
      "Ġcomunicazione": 4778,
      "ĠStud": 4779,
      "ĠSuper": 4780,
      "ĠFire": 4781,
      "ocal": 4782,
      "ovid": 4783,
      "Ġvaria": 4784,
      "Ġpaper": 4785,
      "Ġconfig": 4786,
      "ĠOut": 4787,
      "Ġdesider": 4788,
      "arci": 4789,
      "Ġscreen": 4790,
      "Ġcommit": 4791,
      "Ġroad": 4792,
      "Ġclin": 4793,
      "ĠAmerica": 4794,
      "Ġassic": 4795,
      "Ġcannot": 4796,
      "Ġstabil": 4797,
      "Ġcrescita": 4798,
      "Ġalmost": 4799,
      "tti": 4800,
      "attern": 4801,
      "uo": 4802,
      "Ġvisual": 4803,
      "Ġpositive": 4804,
      "Man": 4805,
      "ĠMr": 4806,
      "alo": 4807,
      "erve": 4808,
      "Ġprojects": 4809,
      "Ġriguarda": 4810,
      "Ġspetta": 4811,
      "Ġbatt": 4812,
      "ĠCoun": 4813,
      "Ġsoon": 4814,
      "eful": 4815,
      "itting": 4816,
      "Ġinternazionale": 4817,
      "Ġulter": 4818,
      "Ġhot": 4819,
      "Ġcerto": 4820,
      "ĠStates": 4821,
      "rc": 4822,
      "Ġsele": 4823,
      "Ġprezzo": 4824,
      "Ġaliment": 4825,
      "Ġfatt": 4826,
      "Ġlower": 4827,
      "ĠTrans": 4828,
      "istor": 4829,
      "equ": 4830,
      "Ġofficial": 4831,
      "Ġcreating": 4832,
      "uito": 4833,
      "Ġdeliver": 4834,
      "aling": 4835,
      "Ġcases": 4836,
      "ĠFeder": 4837,
      "Ġitaliani": 4838,
      "attivitÃł": 4839,
      "ascia": 4840,
      "item": 4841,
      "Ġeffetti": 4842,
      "occup": 4843,
      "Ġhai": 4844,
      "fond": 4845,
      "User": 4846,
      "Ġtent": 4847,
      "iving": 4848,
      "year": 4849,
      "Ġfoot": 4850,
      "Ġspa": 4851,
      "abor": 4852,
      "Ġaccept": 4853,
      "Ġsubs": 4854,
      "Ġappare": 4855,
      "Ġormai": 4856,
      "Ġsolid": 4857,
      "Ġhalf": 4858,
      "ĠNorth": 4859,
      "Ġmorte": 4860,
      "Ġtanti": 4861,
      "Ġmys": 4862,
      "ĠSic": 4863,
      "Ġseem": 4864,
      "bum": 4865,
      "azienda": 4866,
      "tor": 4867,
      "Ġsistem": 4868,
      "ĠEv": 4869,
      "icate": 4870,
      "tail": 4871,
      "Ġsede": 4872,
      "Ġgiornata": 4873,
      "Ġcm": 4874,
      "ago": 4875,
      "ĠGroup": 4876,
      "Wh": 4877,
      "ĠNa": 4878,
      "oghi": 4879,
      "Ġitem": 4880,
      "ĠTur": 4881,
      "ificazione": 4882,
      "anch": 4883,
      "Ġwhite": 4884,
      "Ġdichiar": 4885,
      "ĠAnton": 4886,
      "ĠRem": 4887,
      "Ġsave": 4888,
      "Ġfire": 4889,
      "Ġsettimana": 4890,
      "ipe": 4891,
      "Ġupd": 4892,
      "Ġprotect": 4893,
      "File": 4894,
      "Ġpassato": 4895,
      "Ġpochi": 4896,
      "del": 4897,
      "Ġdirettamente": 4898,
      "Ġhair": 4899,
      "Ph": 4900,
      "Ġcoming": 4901,
      "ãģ": 4902,
      "Ġfase": 4903,
      "CO": 4904,
      "hol": 4905,
      "Model": 4906,
      "disf": 4907,
      "ĠAP": 4908,
      "essere": 4909,
      "Ġpes": 4910,
      "ĠMond": 4911,
      "Ġrunning": 4912,
      "Ġfamil": 4913,
      "Ġfinale": 4914,
      "Ġpromot": 4915,
      "Ġstessi": 4916,
      "ipend": 4917,
      "LO": 4918,
      "ĠRos": 4919,
      "Ġvec": 4920,
      "Ġtrying": 4921,
      "Ġdouble": 4922,
      "Ġnello": 4923,
      "Form": 4924,
      "Ġunderstanding": 4925,
      "Ġdisposizione": 4926,
      "Ġground": 4927,
      "Ġinfo": 4928,
      "Ġbuona": 4929,
      "Ġarray": 4930,
      "Ġoutside": 4931,
      "Ġmark": 4932,
      "Ġistitu": 4933,
      "Ġmoment": 4934,
      "ĠMuse": 4935,
      "ĠmodalitÃł": 4936,
      "ĠMol": 4937,
      "Ġcompless": 4938,
      "Ad": 4939,
      "Ġearn": 4940,
      "Ġfeed": 4941,
      "ĠOnline": 4942,
      "Ġplayer": 4943,
      "Ġprograms": 4944,
      "Ġstruttura": 4945,
      "lied": 4946,
      "ĠIndia": 4947,
      "Ġeserc": 4948,
      "unta": 4949,
      "ĠFirst": 4950,
      "asp": 4951,
      "ĠSen": 4952,
      "Rep": 4953,
      "Ġprincipali": 4954,
      "Ġbed": 4955,
      "Ġeffic": 4956,
      "Ġlatest": 4957,
      "wise": 4958,
      "Ġtouch": 4959,
      "ĠNella": 4960,
      "ĠArch": 4961,
      "Ġdoll": 4962,
      "Ġcapire": 4963,
      "uramente": 4964,
      "Ġagre": 4965,
      "trict": 4966,
      "ĠUK": 4967,
      "Ġmostra": 4968,
      "Ġvig": 4969,
      "ĠList": 4970,
      "Ġcommerci": 4971,
      "info": 4972,
      "},": 4973,
      "ĠFree": 4974,
      "oglie": 4975,
      "ĠOver": 4976,
      "ĠBel": 4977,
      "Ġmie": 4978,
      "Ġstrumenti": 4979,
      "ux": 4980,
      "Ġparty": 4981,
      "Ġsed": 4982,
      "Ġnulla": 4983,
      "ĠBi": 4984,
      "Ġleading": 4985,
      "Ġgamb": 4986,
      "Ġclick": 4987,
      "Ġstudent": 4988,
      "gn": 4989,
      "chÃ¨": 4990,
      "iring": 4991,
      "annel": 4992,
      "Ġregul": 4993,
      "Ġattention": 4994,
      "bar": 4995,
      "Ġplaying": 4996,
      "exp": 4997,
      "Ġ__": 4998,
      "rizione": 4999,
      "Ġrather": 5000,
      "Ġdunque": 5001,
      "ras": 5002,
      "iori": 5003,
      "hib": 5004,
      "iente": 5005,
      "Ġuomini": 5006,
      "Ġgradu": 5007,
      "Ġstrength": 5008,
      "rup": 5009,
      "field": 5010,
      "Ġpensi": 5011,
      "onia": 5012,
      "Ġmember": 5013,
      "Ġautor": 5014,
      "eks": 5015,
      "Ġcontempor": 5016,
      "Ġspeak": 5017,
      "Ġlavori": 5018,
      ".)": 5019,
      "Ġbir": 5020,
      "Ġtrasm": 5021,
      "irÃł": 5022,
      "Ġbehind": 5023,
      "onica": 5024,
      "Ġmond": 5025,
      "Ġequipment": 5026,
      "ered": 5027,
      "Ġbus": 5028,
      "Ġcav": 5029,
      "Ġpurchase": 5030,
      "SS": 5031,
      "perties": 5032,
      "Ġdial": 5033,
      "Ġcomplex": 5034,
      "ki": 5035,
      "Ġquotidi": 5036,
      "iev": 5037,
      "Ġpandem": 5038,
      "ministrazione": 5039,
      "ialmente": 5040,
      "Ġmm": 5041,
      "ban": 5042,
      "atives": 5043,
      "Ġamm": 5044,
      "Ġlabor": 5045,
      "pose": 5046,
      "ĠLond": 5047,
      "oo": 5048,
      "Ġleader": 5049,
      "Ġsense": 5050,
      "Ġlinea": 5051,
      "Ġwords": 5052,
      "length": 5053,
      "VID": 5054,
      "inta": 5055,
      "area": 5056,
      "Ġsix": 5057,
      "Ġcertific": 5058,
      "Ġdiscover": 5059,
      "itable": 5060,
      "Ġassess": 5061,
      "Ġĉĉĉĉĉ": 5062,
      "Ġrelated": 5063,
      "Ġguar": 5064,
      "trutt": 5065,
      "ques": 5066,
      "ĠPER": 5067,
      "Ġguide": 5068,
      "Ġlives": 5069,
      "ograf": 5070,
      "alu": 5071,
      "Ġtold": 5072,
      "Ġminuti": 5073,
      "Ġball": 5074,
      "ĠCenter": 5075,
      "oline": 5076,
      "ĠBest": 5077,
      "Ġdrive": 5078,
      "adra": 5079,
      "Ġexact": 5080,
      "Ġesperienza": 5081,
      "inci": 5082,
      "onomia": 5083,
      "Ġdraw": 5084,
      "assa": 5085,
      "abb": 5086,
      "ZIONE": 5087,
      "Ġaw": 5088,
      "Ġraff": 5089,
      "onta": 5090,
      "tazioni": 5091,
      "atrimon": 5092,
      "ables": 5093,
      "Ġstim": 5094,
      "ĠForm": 5095,
      "weet": 5096,
      "Ġleave": 5097,
      "ancio": 5098,
      "result": 5099,
      "Ġsos": 5100,
      "Ġsell": 5101,
      "ĠHis": 5102,
      "Ġpagina": 5103,
      "ĠcomunitÃł": 5104,
      "Ġprime": 5105,
      "urazione": 5106,
      "ĠEle": 5107,
      "Ġadj": 5108,
      "df": 5109,
      "idge": 5110,
      "Ġfotograf": 5111,
      "ĠDirect": 5112,
      "oma": 5113,
      "amic": 5114,
      "Ġreduce": 5115,
      "Ġannoun": 5116,
      "roc": 5117,
      "Ġinternational": 5118,
      "Ġspl": 5119,
      "TM": 5120,
      "ĠEcco": 5121,
      "aign": 5122,
      "ĠCat": 5123,
      "((": 5124,
      "ðŁ": 5125,
      "tta": 5126,
      "ĠRuss": 5127,
      "post": 5128,
      "æľ": 5129,
      "Ġcareer": 5130,
      "ges": 5131,
      "...]": 5132,
      "Ġesig": 5133,
      "Ġpatients": 5134,
      "Ġros": 5135,
      "ĠPriv": 5136,
      "Ġhref": 5137,
      "ĠInternet": 5138,
      "Ġarchit": 5139,
      "lif": 5140,
      "phone": 5141,
      "Ġriconosc": 5142,
      "ĠKe": 5143,
      "ĠEvery": 5144,
      "Ġtrend": 5145,
      "imoni": 5146,
      "``": 5147,
      "Ġfix": 5148,
      "from": 5149,
      "Ġgoal": 5150,
      "Ġanaly": 5151,
      "Ġopportunities": 5152,
      "ĠTel": 5153,
      "Ġmacch": 5154,
      "Ġsites": 5155,
      "anding": 5156,
      "Ġplant": 5157,
      "ĠNapoli": 5158,
      "Ġlei": 5159,
      "asons": 5160,
      "Ġoverall": 5161,
      "ĠTre": 5162,
      "anche": 5163,
      "arth": 5164,
      "Ġries": 5165,
      "Ġelimin": 5166,
      "Ġvendita": 5167,
      "Ġsex": 5168,
      "Ġoriginal": 5169,
      "Ġcry": 5170,
      "Ġcontenuti": 5171,
      "Sp": 5172,
      "Key": 5173,
      "Ġevol": 5174,
      "ĠOnce": 5175,
      "Ġpermette": 5176,
      "isl": 5177,
      "Ġsiti": 5178,
      "Ġjourney": 5179,
      "ĠProgram": 5180,
      "ops": 5181,
      "Ġalto": 5182,
      "lication": 5183,
      "itivi": 5184,
      "âĢľ": 5185,
      "Ġingredi": 5186,
      "Ġslot": 5187,
      "ĠMarch": 5188,
      "Ġcentr": 5189,
      "iddle": 5190,
      "edes": 5191,
      "Ġphysical": 5192,
      "pond": 5193,
      "Exception": 5194,
      "zze": 5195,
      "Ġgreen": 5196,
      "ĠUl": 5197,
      "Ġrisol": 5198,
      "ĠCommun": 5199,
      "Ð½": 5200,
      "Ġbuilt": 5201,
      "Ġpackage": 5202,
      "inazione": 5203,
      "Ġcurrently": 5204,
      "ĠStati": 5205,
      "Ġbudget": 5206,
      "anks": 5207,
      "Ġboard": 5208,
      "Ġrights": 5209,
      "Ġprobably": 5210,
      "aches": 5211,
      "../": 5212,
      "Ġreceived": 5213,
      "Ġrisposta": 5214,
      "Ġerror": 5215,
      "Ġvalid": 5216,
      "iles": 5217,
      "Ġscrit": 5218,
      "Ġentro": 5219,
      "Ġimprese": 5220,
      "EF": 5221,
      "andom": 5222,
      "ĠAmaz": 5223,
      "url": 5224,
      "atrimonio": 5225,
      "rai": 5226,
      "Ġbio": 5227,
      "Am": 5228,
      "ĠPo": 5229,
      "ĠBre": 5230,
      "ĠDesign": 5231,
      "inst": 5232,
      "oman": 5233,
      "Ġlanguage": 5234,
      "bt": 5235,
      "osed": 5236,
      "Ġdipend": 5237,
      "ĠInternational": 5238,
      "olf": 5239,
      "duction": 5240,
      "Ġambient": 5241,
      "Size": 5242,
      "https": 5243,
      "Up": 5244,
      "ĠBro": 5245,
      "ĠMany": 5246,
      "esperienza": 5247,
      "ĠAM": 5248,
      "atrice": 5249,
      "cep": 5250,
      "Ġremov": 5251,
      "Ġcast": 5252,
      "Ġisc": 5253,
      "Ġshows": 5254,
      "ettivi": 5255,
      "ĠLet": 5256,
      "change": 5257,
      "Ġencou": 5258,
      "Ġaudi": 5259,
      "Ġload": 5260,
      "Ġparam": 5261,
      "Ġemployees": 5262,
      "Ġcountries": 5263,
      "iner": 5264,
      "function": 5265,
      "Ġ].": 5266,
      "Ġexcellent": 5267,
      "point": 5268,
      "Ġinvestment": 5269,
      "Ġprosp": 5270,
      "Ġsustain": 5271,
      "Ġcrisi": 5272,
      "anci": 5273,
      "map": 5274,
      "Ġbelle": 5275,
      "Ġpiatta": 5276,
      "Ġsoddisf": 5277,
      "Ġmo": 5278,
      "Ġdaily": 5279,
      "Ġparla": 5280,
      "pol": 5281,
      "Ġliber": 5282,
      "Ġupon": 5283,
      "Ġdefault": 5284,
      "Ġdomanda": 5285,
      "())": 5286,
      "Ġmodello": 5287,
      "Ġutilizzare": 5288,
      "ĠCle": 5289,
      "utente": 5290,
      "ĠMicro": 5291,
      "Ġkm": 5292,
      "Ġhope": 5293,
      "iversitÃł": 5294,
      "CE": 5295,
      "allo": 5296,
      "ĠVAL": 5297,
      "Ġscorso": 5298,
      "etail": 5299,
      "ĠService": 5300,
      "giare": 5301,
      "NA": 5302,
      "Ġcolp": 5303,
      "Ġlif": 5304,
      "Ġcondition": 5305,
      "bers": 5306,
      "Ġrile": 5307,
      "Ġincred": 5308,
      "Ġpossiamo": 5309,
      "Ġexpla": 5310,
      "ĠUnd": 5311,
      "Ġfid": 5312,
      "Ġliqu": 5313,
      "Ġtraditional": 5314,
      "Ġcommercial": 5315,
      "Ġinclus": 5316,
      "ĠPot": 5317,
      "Ġexpected": 5318,
      "ging": 5319,
      "Ġcomprend": 5320,
      "Ġones": 5321,
      "Ġdesc": 5322,
      "ho": 5323,
      "tura": 5324,
      "isione": 5325,
      "ĠBen": 5326,
      "Ġprivacy": 5327,
      "Ġdescrib": 5328,
      "Ġfresh": 5329,
      "Ġhighly": 5330,
      "Ġcoordin": 5331,
      "Ġtechni": 5332,
      "ĠPerson": 5333,
      "hood": 5334,
      "ously": 5335,
      "ĠOc": 5336,
      "Ġpaint": 5337,
      "ĠSub": 5338,
      "Ġdifficile": 5339,
      "Ġculture": 5340,
      "utting": 5341,
      "Ġmila": 5342,
      "ponent": 5343,
      "Ġpian": 5344,
      "Ġinitial": 5345,
      "TE": 5346,
      "Ġcic": 5347,
      "apt": 5348,
      "Ġpuoi": 5349,
      "Request": 5350,
      "Ġsalv": 5351,
      "aby": 5352,
      "ila": 5353,
      "aces": 5354,
      "lish": 5355,
      "Ġextre": 5356,
      "Ġclub": 5357,
      "ĠTest": 5358,
      "Ġecho": 5359,
      "Ġinput": 5360,
      "ĠRel": 5361,
      "Ġdise": 5362,
      "abato": 5363,
      "ĠâĢĻ": 5364,
      "ilo": 5365,
      "isf": 5366,
      "Ġ+=": 5367,
      "Ġstatus": 5368,
      "ounds": 5369,
      "model": 5370,
      "ĠWest": 5371,
      "State": 5372,
      "olazione": 5373,
      "ĠPRO": 5374,
      "abase": 5375,
      "Ġoffre": 5376,
      "Ġwanted": 5377,
      "ĠMont": 5378,
      "oms": 5379,
      "Ġreading": 5380,
      "Ġwalk": 5381,
      "ĠPR": 5382,
      "Ġthemselves": 5383,
      "Ġdiagn": 5384,
      "Ġanticip": 5385,
      "arc": 5386,
      "ĠPM": 5387,
      "Ġragazzi": 5388,
      "Ġlocali": 5389,
      "åħ": 5390,
      "Ġobtain": 5391,
      "Ġposizione": 5392,
      "mos": 5393,
      "yond": 5394,
      "Ġprecedente": 5395,
      "Ġsun": 5396,
      "ky": 5397,
      "abel": 5398,
      "Ġmaniera": 5399,
      "ichÃ©": 5400,
      "Ġstile": 5401,
      "ague": 5402,
      "hold": 5403,
      "ospital": 5404,
      "Ġappe": 5405,
      "Ġweeks": 5406,
      "Ġvalues": 5407,
      "Ġblood": 5408,
      "ĠMet": 5409,
      "umi": 5410,
      "Ġcomport": 5411,
      "Ġdirectly": 5412,
      "Ġopere": 5413,
      "ancing": 5414,
      "Ġmand": 5415,
      "http": 5416,
      "Ġcontroll": 5417,
      "istero": 5418,
      "ccia": 5419,
      "={": 5420,
      "Ġorganization": 5421,
      "Ġtelef": 5422,
      "Ġchance": 5423,
      "ĠAI": 5424,
      "ham": 5425,
      "Ġdiscip": 5426,
      "Ġtrip": 5427,
      "Ġpayment": 5428,
      "ĠPaolo": 5429,
      "Ġthrow": 5430,
      "Ġlun": 5431,
      "duzione": 5432,
      "Ġimmagini": 5433,
      "Ġstrategy": 5434,
      "Ġgoals": 5435,
      "Ġappropri": 5436,
      "Ġpiccolo": 5437,
      "pot": 5438,
      "Ġrelazione": 5439,
      "itario": 5440,
      "ĠINS": 5441,
      "ĠWhy": 5442,
      "ĠII": 5443,
      "Ġtowards": 5444,
      "Ġcopy": 5445,
      "Ġcorrect": 5446,
      "Ġdovrebbe": 5447,
      "ĠHer": 5448,
      "Ġsend": 5449,
      "enu": 5450,
      "tty": 5451,
      "Ġwel": 5452,
      "ologico": 5453,
      "Ġaffid": 5454,
      "Ġhotel": 5455,
      "inizio": 5456,
      "ellow": 5457,
      "Ġricev": 5458,
      "Ġinfer": 5459,
      "Ġproduce": 5460,
      "Ġriserv": 5461,
      "////////": 5462,
      "ĠGre": 5463,
      "ĠBec": 5464,
      "New": 5465,
      "Ġhealthy": 5466,
      "Ġleggere": 5467,
      "Ġsn": 5468,
      "Ġround": 5469,
      "è¿": 5470,
      "Ġheav": 5471,
      "Ġple": 5472,
      "Ġ[...]": 5473,
      "Ġprogetti": 5474,
      "otos": 5475,
      "Ġrifi": 5476,
      "Ġfort": 5477,
      "Ġasked": 5478,
      "Ġcenter": 5479,
      "Ġmut": 5480,
      "Ġpelle": 5481,
      "Ġvivere": 5482,
      "icazioni": 5483,
      "estire": 5484,
      "ĠdifficoltÃł": 5485,
      "Ġcaratteristiche": 5486,
      "Ġ:=": 5487,
      "Ġcart": 5488,
      "ĠUse": 5489,
      "ĠGiovanni": 5490,
      "Ġocchi": 5491,
      "ĠNULL": 5492,
      "Ġhappy": 5493,
      "ĠThen": 5494,
      "ressione": 5495,
      "Ġ][": 5496,
      "utilizzo": 5497,
      "Ġtotale": 5498,
      "Ġcamera": 5499,
      "idea": 5500,
      "ĠTop": 5501,
      "Ġaim": 5502,
      "Ġstd": 5503,
      "else": 5504,
      "Ġmisura": 5505,
      "({": 5506,
      "vanti": 5507,
      "Ġparts": 5508,
      "ĠAless": 5509,
      "Ġprofess": 5510,
      "frica": 5511,
      "cons": 5512,
      "Ġcash": 5513,
      "Ġincluded": 5514,
      "Ġsoluzione": 5515,
      "Ġcontinua": 5516,
      "Ġmeeting": 5517,
      "SA": 5518,
      "],": 5519,
      "ubblica": 5520,
      "Ġattenzione": 5521,
      "ĠSat": 5522,
      "Ġbuon": 5523,
      "Ġavrebbe": 5524,
      "Ġaware": 5525,
      "illing": 5526,
      "TA": 5527,
      "Ġcapt": 5528,
      "ĠPubblic": 5529,
      "Ġplans": 5530,
      "Ġbehav": 5531,
      "Ġcool": 5532,
      "Ġabbia": 5533,
      "ĠnecessitÃł": 5534,
      "Ġrispond": 5535,
      "ws": 5536,
      "olarmente": 5537,
      "Ġsov": 5538,
      "DA": 5539,
      "Ġnor": 5540,
      "Ġcollection": 5541,
      "issimi": 5542,
      "Ġcharg": 5543,
      "Ġremember": 5544,
      "evelop": 5545,
      "ĠCook": 5546,
      "num": 5547,
      "ĠConsiglio": 5548,
      "Ġwonder": 5549,
      "Ġgran": 5550,
      "weight": 5551,
      "ĠFestival": 5552,
      "Ġsmo": 5553,
      "error": 5554,
      "vio": 5555,
      "anna": 5556,
      "Ġexcept": 5557,
      "liance": 5558,
      "Ġsav": 5559,
      "Ġnas": 5560,
      "irizzo": 5561,
      "ĠCount": 5562,
      "Ġdecor": 5563,
      "ĠHouse": 5564,
      "ĠServices": 5565,
      "Ġnaturale": 5566,
      "fully": 5567,
      "PA": 5568,
      "anzo": 5569,
      "ĠPaese": 5570,
      "Ġopin": 5571,
      "Ġscoper": 5572,
      "Ġosserv": 5573,
      "Ġinvestig": 5574,
      "Ġ||": 5575,
      "Ġnature": 5576,
      "Euro": 5577,
      "izzate": 5578,
      "Ġnational": 5579,
      "UM": 5580,
      "ĠPC": 5581,
      "Ġtechn": 5582,
      "cere": 5583,
      "Ġattract": 5584,
      "Ġsapere": 5585,
      "Ġintellig": 5586,
      "Ġarticolo": 5587,
      "tagram": 5588,
      "RI": 5589,
      "ĠCost": 5590,
      "jo": 5591,
      "amore": 5592,
      "find": 5593,
      "Ġsignifica": 5594,
      "Ġveloc": 5595,
      "wood": 5596,
      "Ġkids": 5597,
      "Ġcosti": 5598,
      "Ġrisultato": 5599,
      "ĠGar": 5600,
      "ontrol": 5601,
      "Ġca": 5602,
      "Ġamaz": 5603,
      "pto": 5604,
      "Ġdeath": 5605,
      "Ġsleep": 5606,
      "Ġcarta": 5607,
      "Ġremo": 5608,
      "Ġsports": 5609,
      "Ġorganiz": 5610,
      "Ġserver": 5611,
      "ctions": 5612,
      "Ġcro": 5613,
      "Ġnothing": 5614,
      "Ġanyone": 5615,
      "iable": 5616,
      "Ġword": 5617,
      "ĠpotrÃł": 5618,
      "ÑĢ": 5619,
      "Ġcasin": 5620,
      "ĠReal": 5621,
      "ĠExp": 5622,
      "Ġbrowser": 5623,
      "Ġinvolved": 5624,
      "len": 5625,
      "Ġincor": 5626,
      "ĠAmazon": 5627,
      "SI": 5628,
      "Ġrob": 5629,
      "soft": 5630,
      "anger": 5631,
      "Ġsupply": 5632,
      "Ġindustr": 5633,
      "Ġtran": 5634,
      "Ġmettere": 5635,
      "Ġapplications": 5636,
      "ĠnÃ©": 5637,
      "Ġvantag": 5638,
      "Ġclic": 5639,
      "Ġovvero": 5640,
      "ga": 5641,
      "ĠBra": 5642,
      "Ġsquadra": 5643,
      "aged": 5644,
      "åĲ": 5645,
      "Ġeasi": 5646,
      "Int": 5647,
      "acci": 5648,
      "ĠMich": 5649,
      "Ġideas": 5650,
      "äº": 5651,
      "Ġitself": 5652,
      "Ġcruc": 5653,
      "Ġtrasfer": 5654,
      "ppia": 5655,
      "sequ": 5656,
      "lim": 5657,
      "duced": 5658,
      "ĠRegione": 5659,
      "ĠAlso": 5660,
      "Ġfondamentale": 5661,
      "ĠCour": 5662,
      "UES": 5663,
      "Ġpsic": 5664,
      "pass": 5665,
      "sm": 5666,
      "cul": 5667,
      "ride": 5668,
      "ĠMarco": 5669,
      "ption": 5670,
      "Ġwrite": 5671,
      "Ġtermini": 5672,
      "Ġmult": 5673,
      "Ġdamage": 5674,
      "ĠID": 5675,
      "Ġheld": 5676,
      "ultima": 5677,
      "accia": 5678,
      "ĠCond": 5679,
      "];": 5680,
      "Ġfacile": 5681,
      "ĠBook": 5682,
      "Ġparlare": 5683,
      "ambiente": 5684,
      "æķ": 5685,
      "Ġsecure": 5686,
      "ertÃł": 5687,
      "çĶ": 5688,
      "ï¿": 5689,
      "ship": 5690,
      "ĠAssoci": 5691,
      "Ġstanno": 5692,
      "ĠWhether": 5693,
      "Ġexerc": 5694,
      "ppi": 5695,
      "Ġplanning": 5696,
      "tezza": 5697,
      "Ġobblig": 5698,
      "Ġstorico": 5699,
      "urato": 5700,
      "Ġhon": 5701,
      "enge": 5702,
      "Ġscegliere": 5703,
      "Ġlocale": 5704,
      "TER": 5705,
      "Ġwr": 5706,
      "my": 5707,
      "Ġestate": 5708,
      "Ġepis": 5709,
      "evo": 5710,
      "Ġmethods": 5711,
      "omma": 5712,
      "Ñģ": 5713,
      "Info": 5714,
      "ĠClass": 5715,
      "Ġcapital": 5716,
      "ections": 5717,
      "ĠDig": 5718,
      "ington": 5719,
      "Ġgives": 5720,
      "ĠCheck": 5721,
      "Ġchallenges": 5722,
      "Ġrecuper": 5723,
      "Ġanalysis": 5724,
      "Ġoffering": 5725,
      "Ġvit": 5726,
      "ĠHol": 5727,
      "Ġbank": 5728,
      "fortable": 5729,
      "Ġacqua": 5730,
      "ï¿½": 5731,
      "arla": 5732,
      "Ġtav": 5733,
      "entemente": 5734,
      "Ġalt": 5735,
      "Node": 5736,
      "ĠChiesa": 5737,
      "Ġinstead": 5738,
      "ront": 5739,
      "ĠJune": 5740,
      "usione": 5741,
      "Ġupdate": 5742,
      "cil": 5743,
      "Ġcondiv": 5744,
      "Ġhum": 5745,
      "mat": 5746,
      "Ġcouple": 5747,
      "Ġappena": 5748,
      "Ġspeed": 5749,
      "Ġindex": 5750,
      "Ġhands": 5751,
      "ĠRis": 5752,
      "Ġsection": 5753,
      "inata": 5754,
      "ĠâĢĿ": 5755,
      "ĠMake": 5756,
      "obi": 5757,
      "term": 5758,
      "ĠPerchÃ©": 5759,
      "rere": 5760,
      "Ġvera": 5761,
      "ivate": 5762,
      "Ġpure": 5763,
      "Ġsteps": 5764,
      "lock": 5765,
      "ng": 5766,
      "Ġvilla": 5767,
      "Ġproprie": 5768,
      "._": 5769,
      "Ġalta": 5770,
      "ĠcioÃ¨": 5771,
      "Ġappart": 5772,
      "link": 5773,
      "ĠSant": 5774,
      "Ġ**": 5775,
      "Ġfavore": 5776,
      "Ġscriv": 5777,
      "Ġevitare": 5778,
      "Ġprova": 5779,
      "api": 5780,
      "Ġcookies": 5781,
      "Ġchia": 5782,
      "Ġuomo": 5783,
      "ĠEven": 5784,
      "ATE": 5785,
      "ĠMor": 5786,
      "rupt": 5787,
      "Ġregister": 5788,
      "Ġesist": 5789,
      "ashion": 5790,
      "ĠPort": 5791,
      "Ġexpress": 5792,
      "Ġsituation": 5793,
      "ĠSim": 5794,
      "ĠCur": 5795,
      "tober": 5796,
      "ĠCOM": 5797,
      "ettare": 5798,
      "ĠDown": 5799,
      "Ġcampaign": 5800,
      "Ġanswer": 5801,
      "osso": 5802,
      "ĠCovid": 5803,
      "aries": 5804,
      "free": 5805,
      "ĠTHE": 5806,
      "Ġfigli": 5807,
      "Ġgaranti": 5808,
      "Ġflu": 5809,
      "Ġfactors": 5810,
      "ĠEuropa": 5811,
      "Ġrisorse": 5812,
      "oming": 5813,
      "mas": 5814,
      "Ġpiccoli": 5815,
      "Ġaffron": 5816,
      "CT": 5817,
      "uk": 5818,
      "Ġabit": 5819,
      "Ġgold": 5820,
      "ĠCult": 5821,
      "inese": 5822,
      "Ġeffects": 5823,
      "Ġintr": 5824,
      "Ġcourt": 5825,
      "Ġagosto": 5826,
      "ĠsÃ©": 5827,
      "ĠDem": 5828,
      "iono": 5829,
      "Ġvolume": 5830,
      "Ġce": 5831,
      "Ġbreve": 5832,
      "ĠPay": 5833,
      "ĠBas": 5834,
      "gl": 5835,
      "ĠPresidente": 5836,
      "ference": 5837,
      "Ġautomatic": 5838,
      "Ġcrucial": 5839,
      "group": 5840,
      "Ġpromo": 5841,
      "ĠFam": 5842,
      "Inter": 5843,
      "Ġwood": 5844,
      "Ġpiace": 5845,
      "ulta": 5846,
      "Ġascol": 5847,
      "Ġtelev": 5848,
      "Ġmodels": 5849,
      "Ġactivity": 5850,
      "Ġstampa": 5851,
      "fi": 5852,
      "Ġcad": 5853,
      "Ġdevices": 5854,
      "like": 5855,
      "Ġgiovane": 5856,
      "ALE": 5857,
      "erget": 5858,
      "active": 5859,
      "Ġ```": 5860,
      "ĠChar": 5861,
      "vey": 5862,
      "Ġmention": 5863,
      "Ġstudenti": 5864,
      "Ġpunt": 5865,
      "Ġslow": 5866,
      "amples": 5867,
      "ĠChina": 5868,
      "Ġgroups": 5869,
      "istics": 5870,
      "Ġmanifesta": 5871,
      "Ġfondo": 5872,
      "ĠCustom": 5873,
      "etica": 5874,
      "ĠJanuary": 5875,
      "Ġelementi": 5876,
      "ĠGreen": 5877,
      "Log": 5878,
      "Ġpotere": 5879,
      "Ġdrink": 5880,
      "Ġfavorite": 5881,
      "Ġpattern": 5882,
      "db": 5883,
      "lam": 5884,
      "ĠFab": 5885,
      "page": 5886,
      "Ġnego": 5887,
      "Ġbil": 5888,
      "tember": 5889,
      "ĠSanta": 5890,
      "ĠRad": 5891,
      "ĠIr": 5892,
      "Ġexam": 5893,
      "Ġfully": 5894,
      "Ġrecently": 5895,
      "Ġlocated": 5896,
      "Ġagric": 5897,
      "Ġlimited": 5898,
      "Ġsoggetti": 5899,
      "Ġprendere": 5900,
      "anzia": 5901,
      "As": 5902,
      "gar": 5903,
      "ĠApril": 5904,
      "Index": 5905,
      "itaria": 5906,
      "Ġresist": 5907,
      "ĠINTO": 5908,
      "Ġcomfort": 5909,
      "dy": 5910,
      "icitÃł": 5911,
      "ĠApple": 5912,
      "Ġworked": 5913,
      "Ġillus": 5914,
      "Ġbenefit": 5915,
      "Field": 5916,
      "apa": 5917,
      "ĠWindows": 5918,
      "Ġtuoi": 5919,
      "nown": 5920,
      "ĠMel": 5921,
      "venire": 5922,
      "Color": 5923,
      "Ġdot": 5924,
      "Ġfrat": 5925,
      "ĠDavid": 5926,
      "start": 5927,
      "Ġnota": 5928,
      "Ġpubblicato": 5929,
      "ĠGrazie": 5930,
      "Ġconcept": 5931,
      "Mod": 5932,
      "Ġdura": 5933,
      "Ġferm": 5934,
      "Ġrib": 5935,
      "max": 5936,
      "UE": 5937,
      "ades": 5938,
      "Ġgarant": 5939,
      "ĠproprietÃł": 5940,
      "ĠAuto": 5941,
      "Ġsosp": 5942,
      "Ġcross": 5943,
      "eti": 5944,
      "Ġedizione": 5945,
      "orning": 5946,
      "Ġimpi": 5947,
      "Ġacquis": 5948,
      "label": 5949,
      "ĠPia": 5950,
      "imately": 5951,
      "Ġscopo": 5952,
      "Ġattrib": 5953,
      "Ġrisc": 5954,
      "Ġportare": 5955,
      "porate": 5956,
      "Ġrepair": 5957,
      "Ġconduct": 5958,
      "Ġå": 5959,
      "Ġrelease": 5960,
      "ĠAR": 5961,
      "arden": 5962,
      "Ġvoce": 5963,
      "js": 5964,
      "ĠGold": 5965,
      "NO": 5966,
      "Ġ()": 5967,
      "Ġfloor": 5968,
      "Ġavanti": 5969,
      "last": 5970,
      "Ġconsidered": 5971,
      "ological": 5972,
      "esp": 5973,
      "ĠresponsabilitÃł": 5974,
      "ĠGal": 5975,
      "osit": 5976,
      "ĠMiche": 5977,
      "Ġincreasing": 5978,
      "Ġspend": 5979,
      "gett": 5980,
      "Ġamici": 5981,
      "____": 5982,
      "Ġraggiungere": 5983,
      "viamente": 5984,
      "Ġcontext": 5985,
      "Ġ];": 5986,
      "Ġgrav": 5987,
      "Ġmotivo": 5988,
      "obile": 5989,
      "Ġbooks": 5990,
      "Ġfatti": 5991,
      "ountain": 5992,
      "Ġprodutt": 5993,
      "retta": 5994,
      "ĠĉĊ": 5995,
      "tiene": 5996,
      "Input": 5997,
      "Ġvisita": 5998,
      "ality": 5999,
      "Ġfair": 6000,
      "ĠLic": 6001,
      "Ġgoes": 6002,
      "Ġmassimo": 6003,
      "rl": 6004,
      "ĠPresident": 6005,
      "Ġanzi": 6006,
      "Ġconcentr": 6007,
      "ĠMaggio": 6008,
      "Ġpretty": 6009,
      "Ġhit": 6010,
      "ync": 6011,
      "ĠTutti": 6012,
      "Ġcompletely": 6013,
      "inale": 6014,
      "Ġstar": 6015,
      "Ð¾Ð": 6016,
      "Ġring": 6017,
      "aca": 6018,
      "Class": 6019,
      "Ġdra": 6020,
      "Ġdisponibile": 6021,
      "Ġgiving": 6022,
      "ĠĠĊ": 6023,
      "uration": 6024,
      "risti": 6025,
      "Ġtesto": 6026,
      "Ġserious": 6027,
      "Ġritrov": 6028,
      "Ġspazi": 6029,
      "ĠWell": 6030,
      "Ġprotected": 6031,
      "Ġspirit": 6032,
      "Ġdry": 6033,
      "opera": 6034,
      "Ġinqu": 6035,
      "andosi": 6036,
      "Ġvarie": 6037,
      "Ġvoi": 6038,
      "inten": 6039,
      "olamento": 6040,
      "Ġuses": 6041,
      "uted": 6042,
      "Ġtown": 6043,
      "Ġsong": 6044,
      "Ġconnection": 6045,
      "Ġtempor": 6046,
      "event": 6047,
      "eci": 6048,
      "ĠLav": 6049,
      "ĠCosa": 6050,
      "Ġdisponibili": 6051,
      "Ġpressure": 6052,
      "Ġcra": 6053,
      "Ġpagamento": 6054,
      "ĠPu": 6055,
      "Ġnotte": 6056,
      "tempt": 6057,
      "actions": 6058,
      "Ġlont": 6059,
      "Ġgiornal": 6060,
      "Ġadvert": 6061,
      "Ġconosci": 6062,
      "Ġcompl": 6063,
      "Ġemo": 6064,
      "Ġnem": 6065,
      "Ġroll": 6066,
      "array": 6067,
      "ifiche": 6068,
      "ucia": 6069,
      "ãĢĤ": 6070,
      "Ã¡": 6071,
      "ught": 6072,
      "Ġsuffici": 6073,
      "ĠRussia": 6074,
      "ĠSecondo": 6075,
      "Ġparents": 6076,
      "onic": 6077,
      "Ġconsap": 6078,
      "Ġdomen": 6079,
      "Ġsatisf": 6080,
      "SP": 6081,
      "Ġwar": 6082,
      "Ġorient": 6083,
      "Ġluoghi": 6084,
      "Ġfamiglie": 6085,
      "ĠVALUES": 6086,
      "Ġdrug": 6087,
      "ĠTorino": 6088,
      "Ġtherap": 6089,
      "Ġvalu": 6090,
      "non": 6091,
      "ĠCanada": 6092,
      "Ġimpegn": 6093,
      "check": 6094,
      "ĠEnglish": 6095,
      "otte": 6096,
      "Ġchat": 6097,
      "Ġsuperf": 6098,
      "Ġgrowing": 6099,
      "Ġstarting": 6100,
      "ilder": 6101,
      "dule": 6102,
      "Ġesegu": 6103,
      "truzione": 6104,
      "Ġaverage": 6105,
      "ĠKing": 6106,
      "ny": 6107,
      "Ġversione": 6108,
      "olio": 6109,
      "Ġpratica": 6110,
      "Ġsole": 6111,
      "Ġfat": 6112,
      "Ġoptim": 6113,
      "dir": 6114,
      "Ġoccasione": 6115,
      "ancy": 6116,
      "Ġvehicle": 6117,
      "Ġauth": 6118,
      "licazione": 6119,
      "ĠClub": 6120,
      "Ġwa": 6121,
      "friend": 6122,
      "assion": 6123,
      "IST": 6124,
      "Ġstock": 6125,
      "eggio": 6126,
      "Ġenerget": 6127,
      "more": 6128,
      "Ġemb": 6129,
      "ĠOctober": 6130,
      "Ġtraspor": 6131,
      "ĠAny": 6132,
      "itchen": 6133,
      "Ġshall": 6134,
      "Ġassociated": 6135,
      "Ġameric": 6136,
      "Ġprincipale": 6137,
      "ĠCentro": 6138,
      "istry": 6139,
      "Ġcatch": 6140,
      "oga": 6141,
      "ĠMarzo": 6142,
      "ĠTerm": 6143,
      "import": 6144,
      "Ġseems": 6145,
      "ĠUSA": 6146,
      "enty": 6147,
      "rec": 6148,
      "Ġcompar": 6149,
      "CA": 6150,
      "ĠÂ©": 6151,
      "ĠFond": 6152,
      "Ġtali": 6153,
      "Ġstage": 6154,
      "Ġassum": 6155,
      "Ġquestione": 6156,
      "Ġpom": 6157,
      "Ġrates": 6158,
      "Ġdream": 6159,
      "Ġlate": 6160,
      "ĠCounty": 6161,
      "echan": 6162,
      "antage": 6163,
      "pite": 6164,
      "ĠSP": 6165,
      "Ġactive": 6166,
      "encies": 6167,
      "cel": 6168,
      "Ġunico": 6169,
      "ĠJuly": 6170,
      "alle": 6171,
      "eccan": 6172,
      "isco": 6173,
      "ils": 6174,
      "Ġwritten": 6175,
      "è¯": 6176,
      "Ġwarm": 6177,
      "Ġfeder": 6178,
      "ffee": 6179,
      "IF": 6180,
      "Ġeffort": 6181,
      "useppe": 6182,
      "Ġgraph": 6183,
      "ĠCre": 6184,
      "MS": 6185,
      "ĠPrima": 6186,
      "Ġdiventa": 6187,
      "inate": 6188,
      "tics": 6189,
      "Ġassert": 6190,
      "orge": 6191,
      "ĠAnn": 6192,
      "Event": 6193,
      "ĠIndi": 6194,
      "æĺ": 6195,
      "Ġletto": 6196,
      "vento": 6197,
      "Ġstorage": 6198,
      "ude": 6199,
      "astro": 6200,
      "Ġreligi": 6201,
      "Ġinterventi": 6202,
      "Ġlength": 6203,
      "Ġinsegn": 6204,
      "Ġconoscenza": 6205,
      "Ġconoscere": 6206,
      "Ġdelivery": 6207,
      "Ġsecolo": 6208,
      "Ġpiece": 6209,
      "ĠResearch": 6210,
      "ĠCalif": 6211,
      "Ġrestaur": 6212,
      "Ġveget": 6213,
      "ĠCB": 6214,
      "Ġideal": 6215,
      "query": 6216,
      "antly": 6217,
      "ĠOggi": 6218,
      "OP": 6219,
      "ĠINSERT": 6220,
      "æĸ": 6221,
      "Ġfan": 6222,
      "Ġexperiences": 6223,
      "iano": 6224,
      "Ġsummer": 6225,
      "enta": 6226,
      "rix": 6227,
      "Ġprotection": 6228,
      "All": 6229,
      "icip": 6230,
      "ĠTwitter": 6231,
      "Ġcinque": 6232,
      "ĠEduc": 6233,
      "Ġsen": 6234,
      "title": 6235,
      "ĠNovember": 6236,
      "ĠSeptember": 6237,
      "Ġevalu": 6238,
      "Ġsistemi": 6239,
      "Ġtrading": 6240,
      "Le": 6241,
      "Ġfasc": 6242,
      "articolo": 6243,
      "doc": 6244,
      "anea": 6245,
      "intenance": 6246,
      "Ġglob": 6247,
      "const": 6248,
      "enziali": 6249,
      "Ġfiles": 6250,
      "Ġdark": 6251,
      "Ġcarri": 6252,
      "ĠInstagram": 6253,
      "Ġfigure": 6254,
      "Ġcarry": 6255,
      "Ġled": 6256,
      "Ġpotrebbero": 6257,
      "Ġaccompagn": 6258,
      "Ġprossimo": 6259,
      "Ġmoto": 6260,
      "Ġchied": 6261,
      "ecutive": 6262,
      "ĠOpen": 6263,
      "Date": 6264,
      "Ġlibr": 6265,
      "idence": 6266,
      "Ġmigliorare": 6267,
      "Ġdeveloped": 6268,
      "Ġrapid": 6269,
      "ornia": 6270,
      "Ġpasso": 6271,
      "ework": 6272,
      "Ġpari": 6273,
      "oph": 6274,
      "Ġdeciso": 6275,
      "Ġesigenze": 6276,
      "Ġtips": 6277,
      "ĠCOVID": 6278,
      "rage": 6279,
      "coin": 6280,
      "Ġsicuramente": 6281,
      "Ġopera": 6282,
      "Ġprices": 6283,
      "alazzo": 6284,
      "comm": 6285,
      "ualitÃł": 6286,
      "').": 6287,
      "Ġeasier": 6288,
      "osition": 6289,
      "arono": 6290,
      "ĠCin": 6291,
      "Ġconstruction": 6292,
      "ĠVilla": 6293,
      "ĠLear": 6294,
      "cuno": 6295,
      "Ġmanage": 6296,
      "ĠCH": 6297,
      "ĠCir": 6298,
      "apter": 6299,
      "ppure": 6300,
      "enses": 6301,
      "Ġeconomic": 6302,
      "coli": 6303,
      "Ġhandle": 6304,
      "ĠLog": 6305,
      "ĠTutta": 6306,
      "For": 6307,
      "Ġexplore": 6308,
      "Ġproto": 6309,
      "Ġamazing": 6310,
      "Ġrelax": 6311,
      "ppa": 6312,
      "ĠLaw": 6313,
      "Ġricor": 6314,
      "define": 6315,
      "Ġhuge": 6316,
      "Ġfram": 6317,
      "Ġvot": 6318,
      "Ġexport": 6319,
      "Ġtemperature": 6320,
      "Path": 6321,
      "Ġheat": 6322,
      "Ġtick": 6323,
      "ĠAD": 6324,
      "erma": 6325,
      "ologica": 6326,
      "Ġlost": 6327,
      "ĠSocial": 6328,
      "Ġpresenta": 6329,
      "Ġpurpose": 6330,
      "uttosto": 6331,
      "Ġprotezione": 6332,
      "rown": 6333,
      "Ġdigitale": 6334,
      "Ġmateria": 6335,
      "ulo": 6336,
      "ĠUniti": 6337,
      "config": 6338,
      "Ġvostro": 6339,
      "ĠTod": 6340,
      "amed": 6341,
      "wide": 6342,
      "ĠMat": 6343,
      "Ġstates": 6344,
      "Ġfunc": 6345,
      "ĠContin": 6346,
      "ĠSince": 6347,
      "ĠOl": 6348,
      "apan": 6349,
      "viene": 6350,
      "Ġrequires": 6351,
      "Ġelett": 6352,
      "================": 6353,
      "Ġdecide": 6354,
      "mar": 6355,
      "Ġdettagli": 6356,
      "ĠDire": 6357,
      "Ġstrumento": 6358,
      "avano": 6359,
      "Ġachieve": 6360,
      "Ġcommunication": 6361,
      "Ġfamili": 6362,
      "Ġmateriale": 6363,
      "content": 6364,
      "enuto": 6365,
      "ĠCollege": 6366,
      "Ġdubb": 6367,
      "urt": 6368,
      "ĠOg": 6369,
      "guard": 6370,
      "ĠIsra": 6371,
      "ows": 6372,
      "asy": 6373,
      "Ġresol": 6374,
      "prise": 6375,
      "ĠNet": 6376,
      "Ġfunzione": 6377,
      "unge": 6378,
      "ĠCare": 6379,
      "Ġpadre": 6380,
      "reh": 6381,
      "Ġresto": 6382,
      "ĠâĨ": 6383,
      "Ġsupporto": 6384,
      "OV": 6385,
      "Ġpace": 6386,
      "Ġdiss": 6387,
      "json": 6388,
      "pace": 6389,
      "ĠIo": 6390,
      "ĠTime": 6391,
      "iven": 6392,
      "Ġeye": 6393,
      "Ġzone": 6394,
      "ĠverrÃł": 6395,
      "Ġreti": 6396,
      "Ġelement": 6397,
      "append": 6398,
      "Ġbambino": 6399,
      "ĠOR": 6400,
      "Ġrepla": 6401,
      "Ġexperienced": 6402,
      "ĠNOT": 6403,
      "ĠĠĠĠĠĠĠĠĠĠĠĠĠĠĠĠĠĠĠĠĠĠĠĠĠĠĠĠĠĠĠ": 6404,
      "ĠManagement": 6405,
      "ambito": 6406,
      "Ġflex": 6407,
      "Ġ})": 6408,
      "ĠTemp": 6409,
      "arne": 6410,
      "Ġprocedure": 6411,
      "][": 6412,
      "Ġbeyond": 6413,
      "Ġlooks": 6414,
      "space": 6415,
      "ĠEach": 6416,
      "ĠPower": 6417,
      "olato": 6418,
      "ĠFun": 6419,
      "Param": 6420,
      "Ġinterp": 6421,
      "Ġtransfer": 6422,
      "ĠlibertÃł": 6423,
      "Ġparticularly": 6424,
      "Ġtante": 6425,
      "Ġarriva": 6426,
      "Ġsoluzioni": 6427,
      "ä½": 6428,
      "astica": 6429,
      "aves": 6430,
      "ĠTit": 6431,
      "ĠDoc": 6432,
      "Ġrappresenta": 6433,
      "inary": 6434,
      "Ġaudience": 6435,
      "bruary": 6436,
      "dÃ¬": 6437,
      "Ġsaw": 6438,
      "uce": 6439,
      "ipping": 6440,
      "(_": 6441,
      "ternal": 6442,
      "Ġcontratto": 6443,
      "Ġrent": 6444,
      "Ġnessuno": 6445,
      "ĠSar": 6446,
      "Ġbecame": 6447,
      "Ġapprofond": 6448,
      "ĠArticolo": 6449,
      "ĠDecember": 6450,
      "Ġsort": 6451,
      "Ġtrib": 6452,
      "cell": 6453,
      "ĠDevelop": 6454,
      "itali": 6455,
      "--------------------------------": 6456,
      "Ġvicino": 6457,
      "Ġconta": 6458,
      "eca": 6459,
      "Ġinstit": 6460,
      "Out": 6461,
      "ĠAustralia": 6462,
      "Ġdiventare": 6463,
      "Ġreflect": 6464,
      "Ġaccur": 6465,
      "Ġdemand": 6466,
      "Ġculturale": 6467,
      "Ġdoor": 6468,
      "Ġcompletamente": 6469,
      "ggia": 6470,
      "Ġregionale": 6471,
      "ĠĠĠĠĠĠĠĠĊ": 6472,
      "ĠðŁ": 6473,
      "Ġamministr": 6474,
      "Ġthinking": 6475,
      "ĠAff": 6476,
      "Ġaree": 6477,
      "Ġpensare": 6478,
      "enerdÃ¬": 6479,
      "nership": 6480,
      "Test": 6481,
      "Ġlibri": 6482,
      "Ġdifference": 6483,
      "Ġgod": 6484,
      "formazione": 6485,
      "Ġpaesi": 6486,
      "Ġnormal": 6487,
      "img": 6488,
      "asione": 6489,
      "Ġattempt": 6490,
      "Ġcib": 6491,
      "ĠGiuseppe": 6492,
      "Ġsudd": 6493,
      "zy": 6494,
      "ĠSign": 6495,
      "ĠCompany": 6496,
      "Ġcontatto": 6497,
      "Ġchies": 6498,
      "used": 6499,
      "Ġsoff": 6500,
      "Ġsched": 6501,
      "inati": 6502,
      "ĠQuest": 6503,
      "Ġmaster": 6504,
      "andon": 6505,
      "obiettivo": 6506,
      "lines": 6507,
      "eler": 6508,
      "Ġprovincia": 6509,
      "Ġalbum": 6510,
      "efore": 6511,
      "Ġbirth": 6512,
      "Ġoutput": 6513,
      "Ġmili": 6514,
      "ituzione": 6515,
      "rice": 6516,
      "ĠPass": 6517,
      "cher": 6518,
      "Ġrespect": 6519,
      "door": 6520,
      "ĠAccording": 6521,
      "ollow": 6522,
      "æķ°": 6523,
      "Ġ\"\"\"": 6524,
      "Ġrock": 6525,
      "ĠWar": 6526,
      "Ġbackground": 6527,
      "Ġsottoline": 6528,
      "Ġprem": 6529,
      "Ġrules": 6530,
      "house": 6531,
      "ĠView": 6532,
      "Ġincreased": 6533,
      "unti": 6534,
      "Ġprevede": 6535,
      "gono": 6536,
      "ĠFind": 6537,
      "amma": 6538,
      "Ġimages": 6539,
      "sec": 6540,
      "iber": 6541,
      "Ġbasic": 6542,
      "Ġscol": 6543,
      "Ġcolore": 6544,
      "ĠHel": 6545,
      "ĠBit": 6546,
      "Ġpowerful": 6547,
      "corsi": 6548,
      "Ġsetting": 6549,
      "Ġsegnal": 6550,
      "trans": 6551,
      "ĠOther": 6552,
      "Ġstraordin": 6553,
      "ĠAlessand": 6554,
      "rono": 6555,
      "onna": 6556,
      "Ġtess": 6557,
      "Ġcinema": 6558,
      "Ġexisting": 6559,
      "Â®": 6560,
      "ittura": 6561,
      "Ġteams": 6562,
      "Ġsociali": 6563,
      "Ġrendere": 6564,
      "Ġcritical": 6565,
      "Ġconfronti": 6566,
      "Ġmid": 6567,
      "Ġq": 6568,
      "ĠAugust": 6569,
      "Ġdedicato": 6570,
      "Ġremove": 6571,
      "eturn": 6572,
      "Ġharm": 6573,
      "ĠVene": 6574,
      "Ġspot": 6575,
      "edding": 6576,
      "occo": 6577,
      "mark": 6578,
      "Ġradio": 6579,
      "Ġbur": 6580,
      "ĠDur": 6581,
      "Ġcoloro": 6582,
      "Ġcompreh": 6583,
      "ĠAlla": 6584,
      "ARE": 6585,
      "oker": 6586,
      "Ġformer": 6587,
      "Ġton": 6588,
      "ologie": 6589,
      "haps": 6590,
      "Ġdomenica": 6591,
      "Ġmuse": 6592,
      "Ġmoving": 6593,
      "Ġclim": 6594,
      "Ġsou": 6595,
      "Ġaspetti": 6596,
      "asti": 6597,
      "colare": 6598,
      "ĠStart": 6599,
      "ĠLoc": 6600,
      "Ġdavanti": 6601,
      "ĠOra": 6602,
      "thern": 6603,
      "Ġsoc": 6604,
      "ĠNazionale": 6605,
      "Ġadvice": 6606,
      "Ġfiglio": 6607,
      "Ġcomplic": 6608,
      "Ġprogramm": 6609,
      "Ġcharge": 6610,
      "ĠDepartment": 6611,
      "Ġstrategies": 6612,
      "bilitÃł": 6613,
      "Ġdivis": 6614,
      "Of": 6615,
      "Ġecco": 6616,
      "iture": 6617,
      "Ġcucina": 6618,
      "sta": 6619,
      "ĠCalifornia": 6620,
      "Ġmeaning": 6621,
      "ĉĉĉĉ": 6622,
      "Ġsoldi": 6623,
      "Ġelements": 6624,
      "istare": 6625,
      "Ġgiur": 6626,
      "Ġguarante": 6627,
      "Ġpiuttosto": 6628,
      "Ġgenitori": 6629,
      "Ġtransport": 6630,
      "Ġcliente": 6631,
      "Ġwindow": 6632,
      "Sel": 6633,
      "ĠSee": 6634,
      "Ġcant": 6635,
      "Ġmail": 6636,
      "ĠJack": 6637,
      "ael": 6638,
      "Ġpartecipazione": 6639,
      "ĠOper": 6640,
      "tructure": 6641,
      "arily": 6642,
      "Ġlegisl": 6643,
      "ĠperchÃ¨": 6644,
      "Ġcore": 6645,
      "erved": 6646,
      "ĠSport": 6647,
      "Ġinterested": 6648,
      "ych": 6649,
      "edizione": 6650,
      "hest": 6651,
      "Ġtesta": 6652,
      "unk": 6653,
      "ford": 6654,
      "anal": 6655,
      "nes": 6656,
      "Ġpull": 6657,
      "Ġtransform": 6658,
      "Ġadegu": 6659,
      "Ġcomfortable": 6660,
      "Ġrespond": 6661,
      "Ġbegan": 6662,
      "Ġgarantire": 6663,
      "SC": 6664,
      "Ġtask": 6665,
      "Ġannunci": 6666,
      "Ġterre": 6667,
      "ordine": 6668,
      "lip": 6669,
      "ĠWash": 6670,
      "covery": 6671,
      "Ġdiet": 6672,
      "Ġplaces": 6673,
      "ĠLink": 6674,
      "Ġbutton": 6675,
      "ĠAbout": 6676,
      "ĠNext": 6677,
      "ĠDani": 6678,
      "ograph": 6679,
      "Ġtrasform": 6680,
      "å®": 6681,
      "Ġcertainly": 6682,
      "Ġaudio": 6683,
      "Ġ($": 6684,
      "Ġtecnologia": 6685,
      "Ġcosto": 6686,
      "Ġfen": 6687,
      "Ġmondiale": 6688,
      "Ġrelev": 6689,
      "Ġwrong": 6690,
      "ĠOF": 6691,
      "itionally": 6692,
      "Ġmateriali": 6693,
      "Ġcontra": 6694,
      "Ġafford": 6695,
      "tee": 6696,
      "TH": 6697,
      "ĠPD": 6698,
      "Ġpet": 6699,
      "ĠGes": 6700,
      "Ġfeeling": 6701,
      "lese": 6702,
      "Ġhop": 6703,
      "Ġimposs": 6704,
      "Ġunit": 6705,
      "Ġfranc": 6706,
      "case": 6707,
      "ĠReview": 6708,
      "ĠFl": 6709,
      "Ġmigr": 6710,
      "Ġeleg": 6711,
      "uel": 6712,
      "Ġscomm": 6713,
      "aneo": 6714,
      "Ġutile": 6715,
      "Ġalternative": 6716,
      "ĠVen": 6717,
      "pons": 6718,
      "AND": 6719,
      "Ġjava": 6720,
      "Ġmanager": 6721,
      "OG": 6722,
      "Ġpolitical": 6723,
      "Ġscena": 6724,
      "ĠFebruary": 6725,
      "ĠCong": 6726,
      "Ġeconomico": 6727,
      "ĠGood": 6728,
      "izzi": 6729,
      "Ġrot": 6730,
      "Ġdiment": 6731,
      "oglio": 6732,
      "ĠAf": 6733,
      "ĠPan": 6734,
      "Ġbor": 6735,
      "Ġneigh": 6736,
      "Ġjud": 6737,
      "Ġreale": 6738,
      "Ġmedico": 6739,
      "Ġutilizzati": 6740,
      "Ġsometimes": 6741,
      "ru": 6742,
      "image": 6743,
      "ably": 6744,
      "Ġrealizzazione": 6745,
      "ales": 6746,
      "Ġnecessari": 6747,
      "à¸": 6748,
      "Ġnonostante": 6749,
      "Ġresponsible": 6750,
      "itano": 6751,
      "iler": 6752,
      "Ġfight": 6753,
      "Ġregarding": 6754,
      "ECT": 6755,
      "ĠEuropean": 6756,
      "Ġeyes": 6757,
      "uire": 6758,
      "ĠAndroid": 6759,
      "Ġpaid": 6760,
      "ĠSing": 6761,
      "Ġsuperiore": 6762,
      "iday": 6763,
      "gu": 6764,
      "oche": 6765,
      "ERE": 6766,
      "ega": 6767,
      "loat": 6768,
      "Ġincome": 6769,
      "Ġpeso": 6770,
      "Ġstructure": 6771,
      "Ġperman": 6772,
      "count": 6773,
      "status": 6774,
      "Ġfamilies": 6775,
      "Ġinfras": 6776,
      "nze": 6777,
      "Ġconsente": 6778,
      "ĠSC": 6779,
      "Ġdistin": 6780,
      "ĠAndrea": 6781,
      "Code": 6782,
      "ĠMerc": 6783,
      "Ġrilev": 6784,
      "Ġreasons": 6785,
      "verse": 6786,
      "Ġincontro": 6787,
      "Ġindepend": 6788,
      "Non": 6789,
      "init": 6790,
      "Ġadministr": 6791,
      "ĠStef": 6792,
      "'),": 6793,
      "ya": 6794,
      "Ġpil": 6795,
      "ĠSud": 6796,
      "Ġorders": 6797,
      "Ġparola": 6798,
      "ummary": 6799,
      "nel": 6800,
      "Ġsorp": 6801,
      "abled": 6802,
      "Ġsoltanto": 6803,
      "Ġextrem": 6804,
      "pty": 6805,
      "stitute": 6806,
      "attia": 6807,
      "ĠTuttavia": 6808,
      "Ġmetri": 6809,
      "Ġadult": 6810,
      "Ġlavoratori": 6811,
      "UP": 6812,
      "Ġbisogna": 6813,
      "ĠStreet": 6814,
      "Reg": 6815,
      "Ġtecnica": 6816,
      "issions": 6817,
      "ĠChristi": 6818,
      "Ġragione": 6819,
      "Ġprovved": 6820,
      "./": 6821,
      "itary": 6822,
      "ĠCred": 6823,
      "Array": 6824,
      "tegno": 6825,
      "itazione": 6826,
      "Ġuso": 6827,
      "Ġucc": 6828,
      "Ġmorning": 6829,
      "Ġgets": 6830,
      "ĠAlthough": 6831,
      "Ġrinnov": 6832,
      "ignore": 6833,
      "ĠOrgan": 6834,
      "ĠMad": 6835,
      "Ġoccur": 6836,
      "Per": 6837,
      "Ġcolori": 6838,
      "Ġhous": 6839,
      "Ġdifferenza": 6840,
      "Ġmente": 6841,
      "ĠTH": 6842,
      "idio": 6843,
      "pring": 6844,
      "ĠProduct": 6845,
      "Ġmarg": 6846,
      "unte": 6847,
      "Ġinstance": 6848,
      "pertura": 6849,
      "Ġarrivare": 6850,
      "ocket": 6851,
      "eck": 6852,
      "Label": 6853,
      "orb": 6854,
      "Ġazioni": 6855,
      "ĠPosted": 6856,
      "Ġvision": 6857,
      "IE": 6858,
      "gest": 6859,
      "Manager": 6860,
      "Ġentry": 6861,
      "stance": 6862,
      "ĠAntonio": 6863,
      "Ġloan": 6864,
      "Ġ%.": 6865,
      "ĠIP": 6866,
      "ĠMess": 6867,
      "Ġtrade": 6868,
      "ICA": 6869,
      "Ġwoman": 6870,
      "Ġexactly": 6871,
      "lla": 6872,
      "Ġap": 6873,
      "conn": 6874,
      "Ġwish": 6875,
      "Ġreve": 6876,
      "Ġentram": 6877,
      "Ġanimali": 6878,
      "Ġdating": 6879,
      "Ġraga": 6880,
      "Ġsession": 6881,
      "osof": 6882,
      "ĠGovern": 6883,
      "Ġensuring": 6884,
      "odes": 6885,
      "band": 6886,
      "Ġdram": 6887,
      "sian": 6888,
      "Ġdegree": 6889,
      "Ġprimary": 6890,
      "ettono": 6891,
      "IB": 6892,
      "Ġthreat": 6893,
      "ĠmetÃł": 6894,
      "Ġhappen": 6895,
      "Ġcostante": 6896,
      "Ġraccolta": 6897,
      "Ġorganizations": 6898,
      "Ġlingu": 6899,
      "ought": 6900,
      "rought": 6901,
      "Europa": 6902,
      "emble": 6903,
      "yles": 6904,
      "Ġmaggi": 6905,
      "hand": 6906,
      "Ġcloud": 6907,
      "Ġappropriate": 6908,
      "Ġgiochi": 6909,
      "No": 6910,
      "Ġprezzi": 6911,
      "core": 6912,
      "ĠPs": 6913,
      "Ġprofessionals": 6914,
      "estro": 6915,
      "ĠFound": 6916,
      "Ġflav": 6917,
      "ums": 6918,
      "Ġvirus": 6919,
      "\\\"": 6920,
      "onstr": 6921,
      "utta": 6922,
      "estra": 6923,
      "Ġespos": 6924,
      "Ġrelative": 6925,
      "ĠLondon": 6926,
      "ĠMov": 6927,
      "LC": 6928,
      "Ġclasse": 6929,
      "ĠTi": 6930,
      "Ġciasc": 6931,
      "Ġfornire": 6932,
      "ĠSel": 6933,
      "Ġjoin": 6934,
      "Ġincontri": 6935,
      "Ġgara": 6936,
      "Ġnumbers": 6937,
      "ĠCla": 6938,
      "Ġfisc": 6939,
      "Tra": 6940,
      "Ġspread": 6941,
      "Ġlines": 6942,
      "Ġhelping": 6943,
      "Ġreported": 6944,
      "ĠGia": 6945,
      "Ġtecniche": 6946,
      "Ġportato": 6947,
      "ĠLook": 6948,
      "Ġspecie": 6949,
      "Ġlavorare": 6950,
      "request": 6951,
      "ĠNuov": 6952,
      "Ġpagine": 6953,
      "Ġinvi": 6954,
      "irsi": 6955,
      "Ġinterview": 6956,
      "merce": 6957,
      "Ġshared": 6958,
      "\").": 6959,
      "ĠnovitÃł": 6960,
      "Ġpractices": 6961,
      "Ġscuole": 6962,
      "istici": 6963,
      "Ġnotice": 6964,
      "ositÃł": 6965,
      "Â»,": 6966,
      "Ġmadre": 6967,
      "Ġpreoccup": 6968,
      "Ser": 6969,
      "ĠClick": 6970,
      "rome": 6971,
      "ĠMer": 6972,
      "ĠProject": 6973,
      "Ġfemmin": 6974,
      "Ġoffered": 6975,
      "Ġnucle": 6976,
      "Ġinteresting": 6977,
      "onav": 6978,
      "Ġconsole": 6979,
      "Ġgift": 6980,
      "Ġprep": 6981,
      "ĠDE": 6982,
      "ettiva": 6983,
      "Ġmotiv": 6984,
      "icing": 6985,
      "ĠEconom": 6986,
      "++)": 6987,
      "ĠRE": 6988,
      "ĠetÃł": 6989,
      "Ġcomuni": 6990,
      "Ġfacendo": 6991,
      "args": 6992,
      "Ġpublished": 6993,
      "Point": 6994,
      "Ġintens": 6995,
      "Ġdefinitely": 6996,
      "Ġdisease": 6997,
      "Line": 6998,
      "Ġseguire": 6999,
      "Ġpatient": 7000,
      "Ġstraight": 7001,
      "Ġbalance": 7002,
      "ĠAlber": 7003,
      "Ġlabel": 7004,
      "Ġristor": 7005,
      "Ġcoach": 7006,
      "Ġmisure": 7007,
      "py": 7008,
      "Ġinteresse": 7009,
      "lit": 7010,
      "ĠnonchÃ©": 7011,
      "ĠDiv": 7012,
      "Ġhear": 7013,
      "gor": 7014,
      "cca": 7015,
      "ologna": 7016,
      "ĠAnother": 7017,
      "Ġcollege": 7018,
      "ĠCard": 7019,
      "Ġlettura": 7020,
      "Ġsusp": 7021,
      "ORE": 7022,
      "TR": 7023,
      "ĠTrump": 7024,
      "eters": 7025,
      "Ġpiccola": 7026,
      "ĠDic": 7027,
      "Ġmovimento": 7028,
      "Ġdimostr": 7029,
      "Ġarticoli": 7030,
      "Map": 7031,
      "lying": 7032,
      "Ġvanno": 7033,
      "eces": 7034,
      "Ġtruly": 7035,
      "Message": 7036,
      "Ġmaggiori": 7037,
      "ials": 7038,
      "å¤": 7039,
      "Ġcreative": 7040,
      "Ġsold": 7041,
      "Ġdistanza": 7042,
      "Ġgiusto": 7043,
      "Ġadjust": 7044,
      "Ġglass": 7045,
      "ĠJapan": 7046,
      "ypes": 7047,
      "Ġimmediately": 7048,
      "Config": 7049,
      "Ġstories": 7050,
      "Ġappunt": 7051,
      "ĠFi": 7052,
      "Ġvict": 7053,
      "Act": 7054,
      "Ġprofessionale": 7055,
      "Ġcategoria": 7056,
      "'.": 7057,
      "Bu": 7058,
      "ĠMedia": 7059,
      "Ġrischi": 7060,
      "Ġapart": 7061,
      "ionale": 7062,
      "Ġforme": 7063,
      "Ġwear": 7064,
      "Ġnice": 7065,
      "Ġfelt": 7066,
      "Ġgreater": 7067,
      "object": 7068,
      "Ġdead": 7069,
      "Ġlab": 7070,
      "Result": 7071,
      "Ġqualcuno": 7072,
      "Ġwait": 7073,
      "Ġavven": 7074,
      "à¤": 7075,
      "ĠAfrica": 7076,
      "lab": 7077,
      "Ġdecided": 7078,
      "Ġmiei": 7079,
      "Ġoperations": 7080,
      "inn": 7081,
      "Ġthr": 7082,
      "ĠCiv": 7083,
      "Ġadvantage": 7084,
      "izzazioni": 7085,
      "UniversitÃł": 7086,
      "Ġreviews": 7087,
      "ĠquantitÃł": 7088,
      "Ġstup": 7089,
      "ilter": 7090,
      "bal": 7091,
      "uppi": 7092,
      "terÃł": 7093,
      "Ġiniti": 7094,
      "Ġsurface": 7095,
      "ĠCateg": 7096,
      "ĠEss": 7097,
      "Ġcooper": 7098,
      "ATO": 7099,
      "ĠRich": 7100,
      "Ġquad": 7101,
      "aj": 7102,
      "ĠStar": 7103,
      "Ġtypically": 7104,
      "Ġmission": 7105,
      "Ġprevisto": 7106,
      "Ġrispar": 7107,
      "enzia": 7108,
      "Ġsfr": 7109,
      "Ġgambling": 7110,
      "Ġdomest": 7111,
      "Lo": 7112,
      "aled": 7113,
      "true": 7114,
      "Ġfrag": 7115,
      "evento": 7116,
      "Ġmeasure": 7117,
      "Ġtapp": 7118,
      "Ġmeccan": 7119,
      "ĠMicrosoft": 7120,
      "\"><": 7121,
      "ups": 7122,
      "Ġbell": 7123,
      "Ġdeposit": 7124,
      "Ġresponsabile": 7125,
      "Ġsurround": 7126,
      "Ġmap": 7127,
      "ossa": 7128,
      "Ġmental": 7129,
      "ingu": 7130,
      "Ġria": 7131,
      "Ġcards": 7132,
      "Ġriport": 7133,
      "aper": 7134,
      "Ġund": 7135,
      "Ġlit": 7136,
      "This": 7137,
      "Ġconfirm": 7138,
      "atively": 7139,
      "ĠLast": 7140,
      "Ġmodelli": 7141,
      "Ġpolitiche": 7142,
      "Ġsera": 7143,
      "Ġstrugg": 7144,
      "ĠNor": 7145,
      "Met": 7146,
      "ĠVideo": 7147,
      "ĠCopy": 7148,
      "Ġbroad": 7149,
      "Ġdomande": 7150,
      "acia": 7151,
      "Ġmel": 7152,
      "ĠSv": 7153,
      "Ġdetermine": 7154,
      "Ġlack": 7155,
      "Ġpazienti": 7156,
      "mission": 7157,
      "Ġterzo": 7158,
      "ĠYes": 7159,
      "teggi": 7160,
      "Ġallowing": 7161,
      "ĠOltre": 7162,
      "ĠGesÃ¹": 7163,
      "Ġnil": 7164,
      "Ġaffrontare": 7165,
      "Ġselection": 7166,
      "usso": 7167,
      "iny": 7168,
      "Ġconcer": 7169,
      "ĠDef": 7170,
      "quality": 7171,
      "Ġhour": 7172,
      "Ġmir": 7173,
      "Ġ(!": 7174,
      "Ġsostegno": 7175,
      "Ġdistur": 7176,
      "ãĤ": 7177,
      "inder": 7178,
      "alli": 7179,
      "los": 7180,
      "Ġcontenuto": 7181,
      "ds": 7182,
      "Ġinnovative": 7183,
      "berg": 7184,
      "ĠBig": 7185,
      "stra": 7186,
      "ĠTechnolog": 7187,
      "unc": 7188,
      "Ġefforts": 7189,
      "ĠLife": 7190,
      "ville": 7191,
      "Ġufficiale": 7192,
      "Ġbella": 7193,
      "Ġtesting": 7194,
      "Ġmort": 7195,
      "Ġ('": 7196,
      "ĠQuesti": 7197,
      "urare": 7198,
      "ĠCho": 7199,
      "Ġbool": 7200,
      "Ġrende": 7201,
      "ogliere": 7202,
      "Ġdovuto": 7203,
      "Ġbaby": 7204,
      "Ġscale": 7205,
      "Ġdiretta": 7206,
      "width": 7207,
      "Ġlunga": 7208,
      "ĠFriday": 7209,
      "And": 7210,
      "Ġformat": 7211,
      "ĠPrivacy": 7212,
      "ĠFood": 7213,
      "Ġiniz": 7214,
      "iller": 7215,
      "Ġsezione": 7216,
      "Ġ[]": 7217,
      "itation": 7218,
      "Ġpool": 7219,
      "Ġrout": 7220,
      "xy": 7221,
      "rew": 7222,
      "Ġprotagonista": 7223,
      "kers": 7224,
      "Ġbul": 7225,
      "ãĥ": 7226,
      "Ġstatement": 7227,
      "ĠMaster": 7228,
      "ĠTR": 7229,
      "Ġcalcio": 7230,
      "Ġuseful": 7231,
      "ĠBrit": 7232,
      "ificato": 7233,
      "Ġvirtual": 7234,
      "Ġmyself": 7235,
      "Ġelectric": 7236,
      "ĠHotel": 7237,
      "ĠPeople": 7238,
      "Ġidentify": 7239,
      "Ġsabato": 7240,
      "ighest": 7241,
      "Ġinstruct": 7242,
      "option": 7243,
      "Ġutilizzato": 7244,
      "ZA": 7245,
      "Ġbasso": 7246,
      "Ġdivert": 7247,
      "ceed": 7248,
      "valid": 7249,
      "Ġec": 7250,
      "Ġcleaning": 7251,
      "Ġposti": 7252,
      "ached": 7253,
      "xi": 7254,
      "æĪ": 7255,
      "char": 7256,
      "Ġscene": 7257,
      "EX": 7258,
      "Phone": 7259,
      "parent": 7260,
      "Ġpiattaforma": 7261,
      "Ġdecisions": 7262,
      "Ġpx": 7263,
      "Ġrelevant": 7264,
      "ĠPubblicato": 7265,
      "Ġbenefici": 7266,
      "Ġconferm": 7267,
      "Ġconsenso": 7268,
      "Ġattiv": 7269,
      "Ġmechan": 7270,
      "Element": 7271,
      "Ġhy": 7272,
      "ename": 7273,
      "ĠveritÃł": 7274,
      "meno": 7275,
      "ĠConf": 7276,
      "Button": 7277,
      "Hand": 7278,
      "Ġbeginning": 7279,
      "prim": 7280,
      "ĠCro": 7281,
      "Ġnom": 7282,
      "Ġmemor": 7283,
      "ĠTutto": 7284,
      "ĠÂ£": 7285,
      "Ġmesso": 7286,
      "Ġspia": 7287,
      "Count": 7288,
      "troppo": 7289,
      "email": 7290,
      "viso": 7291,
      "âĢĵ": 7292,
      "venue": 7293,
      "Ġmaintenance": 7294,
      "ĠBecause": 7295,
      "Ġplayed": 7296,
      "Ġregole": 7297,
      "${": 7298,
      "()->": 7299,
      "ĠLat": 7300,
      "Ġshop": 7301,
      "Ġprovider": 7302,
      "Ġthous": 7303,
      "idden": 7304,
      "ĠDuring": 7305,
      "Ġchiar": 7306,
      "Ġpages": 7307,
      "ĠPolicy": 7308,
      "Ġroof": 7309,
      "Ġlingua": 7310,
      "Ġchallenge": 7311,
      "Controll": 7312,
      "draw": 7313,
      "Ġenhance": 7314,
      "arlier": 7315,
      "Ġafferm": 7316,
      "Ġsperiment": 7317,
      "Ġpotranno": 7318,
      "Ġcampagna": 7319,
      "uncia": 7320,
      "Ġmostr": 7321,
      "Ġselezion": 7322,
      "rente": 7323,
      "Ġexperts": 7324,
      "ĠPaul": 7325,
      "ĠWhite": 7326,
      "ĠSund": 7327,
      "Ġpartnership": 7328,
      "orme": 7329,
      "call": 7330,
      "Ġaggiung": 7331,
      "Ġmother": 7332,
      "volta": 7333,
      "Conte": 7334,
      "Ġmiliardi": 7335,
      "flow": 7336,
      "Ġdepend": 7337,
      "Ġchem": 7338,
      "ĠTex": 7339,
      "Ġenergia": 7340,
      "Ġassol": 7341,
      "host": 7342,
      "ĠLong": 7343,
      "Ġmenu": 7344,
      "Ġcolt": 7345,
      "ilio": 7346,
      "Ġcorris": 7347,
      "bur": 7348,
      "Ġattend": 7349,
      "ĠInvest": 7350,
      "Ġnation": 7351,
      "Ġproposta": 7352,
      "ĠNovembre": 7353,
      "Ġsmooth": 7354,
      "Ġusare": 7355,
      "undred": 7356,
      "paren": 7357,
      "ieved": 7358,
      "Ġvalori": 7359,
      "Ġadvis": 7360,
      "Ġretail": 7361,
      "Ġexpos": 7362,
      "current": 7363,
      "Ġadvanced": 7364,
      "onavirus": 7365,
      "','": 7366,
      "voli": 7367,
      "Ġcraft": 7368,
      "Ġrecip": 7369,
      "zer": 7370,
      "Ġappreci": 7371,
      "Ġevidence": 7372,
      "Ġtechnical": 7373,
      "Ġparticolarmente": 7374,
      "ĠAND": 7375,
      "Ġsettimane": 7376,
      "aser": 7377,
      "ĠEmp": 7378,
      "With": 7379,
      "Ġphotos": 7380,
      "Ġrealizzare": 7381,
      "Ġinvent": 7382,
      "Ġdurata": 7383,
      "Ġpiedi": 7384,
      "ç»": 7385,
      "Ġbath": 7386,
      "Ġcommunities": 7387,
      "Ġdil": 7388,
      "pack": 7389,
      "Ġmemoria": 7390,
      "Ġheight": 7391,
      "ĠCris": 7392,
      "open": 7393,
      "Ġieri": 7394,
      "Ġhistor": 7395,
      "ĠOgni": 7396,
      "inger": 7397,
      "Ġpassword": 7398,
      "Ġvideos": 7399,
      "rid": 7400,
      "Ġbottom": 7401,
      "Ġimmo": 7402,
      "ĠCasa": 7403,
      "evano": 7404,
      "Ġdemonstr": 7405,
      "ĠWilli": 7406,
      "Ġpubblici": 7407,
      "alto": 7408,
      "ĠDate": 7409,
      "anging": 7410,
      "Acc": 7411,
      "Ġmovie": 7412,
      "BA": 7413,
      "Ġpaura": 7414,
      "Ġaward": 7415,
      "assert": 7416,
      "Ġschools": 7417,
      "Ġholid": 7418,
      "with": 7419,
      "Ġworkers": 7420,
      "Ġrichieste": 7421,
      "Ġtecnico": 7422,
      "izer": 7423,
      "yc": 7424,
      "Ġahead": 7425,
      "ĠToday": 7426,
      "rig": 7427,
      "Ġ<-": 7428,
      "UI": 7429,
      "Ġvisione": 7430,
      "Ġproveni": 7431,
      "Ġimper": 7432,
      "Ġatto": 7433,
      "Ġtechniques": 7434,
      "Ġped": 7435,
      "eline": 7436,
      "ifici": 7437,
      "Ġbasis": 7438,
      "icati": 7439,
      "idget": 7440,
      "Ġdomin": 7441,
      "ĠPolit": 7442,
      "PE": 7443,
      "Ġmerito": 7444,
      "çĶ¨": 7445,
      "Ġeventuali": 7446,
      "Ġcentrale": 7447,
      "Ġnarr": 7448,
      "Context": 7449,
      "Ġaf": 7450,
      "Ġdallo": 7451,
      "ĠNatale": 7452,
      "ĠId": 7453,
      "uola": 7454,
      "Ġnumerous": 7455,
      "ĠSpe": 7456,
      "Ġattack": 7457,
      "issioni": 7458,
      "Ġbreat": 7459,
      "ĠTour": 7460,
      "Ġtraffic": 7461,
      "venzione": 7462,
      "Ġpartita": 7463,
      "Ġidee": 7464,
      "ĠGeneral": 7465,
      "Ġproperties": 7466,
      "Ġloved": 7467,
      "rench": 7468,
      "Ġzero": 7469,
      "Ġchain": 7470,
      "Ġstandards": 7471,
      "ĠNord": 7472,
      "Ġextremely": 7473,
      "BC": 7474,
      "ĠLuca": 7475,
      "Ġplus": 7476,
      "ĠAlex": 7477,
      "Ġimpar": 7478,
      "Ġvul": 7479,
      "Ġrealizzato": 7480,
      "ĠCasino": 7481,
      "Ġplatforms": 7482,
      "Ġstre": 7483,
      "build": 7484,
      "Ġritorno": 7485,
      "Ed": 7486,
      "Ġrelationships": 7487,
      "Ġweather": 7488,
      "Ġspeciale": 7489,
      "oren": 7490,
      "Ġprocesses": 7491,
      "occa": 7492,
      "ĠLike": 7493,
      "Ġsequ": 7494,
      "rens": 7495,
      "AV": 7496,
      "Ġtradizione": 7497,
      "Ġminor": 7498,
      "issime": 7499,
      "TS": 7500,
      "Lay": 7501,
      "Ġkitchen": 7502,
      "Ġspese": 7503,
      "ĠpoichÃ©": 7504,
      "ĠSalv": 7505,
      "æĺ¯": 7506,
      "usti": 7507,
      "osizione": 7508,
      "entially": 7509,
      "ĠPublic": 7510,
      "ses": 7511,
      "Ġlivelli": 7512,
      "Ġreleased": 7513,
      "Ġpiazza": 7514,
      "Ġdedicated": 7515,
      "Ġì": 7516,
      "ĠBologna": 7517,
      "Ġcivile": 7518,
      "ĠJes": 7519,
      "Ġcentral": 7520,
      "ĠProm": 7521,
      "Ġappoint": 7522,
      "ĠGuard": 7523,
      "ĠdovrÃł": 7524,
      "Ġpassione": 7525,
      "ĠLi": 7526,
      "Ġstrutture": 7527,
      "Ġforce": 7528,
      "Ġniente": 7529,
      "Ġsindaco": 7530,
      "look": 7531,
      "Ġindividu": 7532,
      "ossi": 7533,
      "Ġ))": 7534,
      "ĠEN": 7535,
      "Ĳâ": 7536,
      "Ġeat": 7537,
      "ifico": 7538,
      "Ġillustr": 7539,
      "Ġlandsc": 7540,
      "Ġconsapevole": 7541,
      "Ġaffect": 7542,
      "Ġbenefic": 7543,
      "Ġsugli": 7544,
      "ĠRepubblica": 7545,
      "Not": 7546,
      "Ġsemplicemente": 7547,
      "Ġquei": 7548,
      "Ġsaying": 7549,
      "estern": 7550,
      "Ġamore": 7551,
      "ĠGame": 7552,
      "eph": 7553,
      "icata": 7554,
      "actory": 7555,
      "Ġconqu": 7556,
      "iling": 7557,
      "Ġwebsites": 7558,
      "Ġgenerally": 7559,
      "ĠAngel": 7560,
      "ĠSam": 7561,
      "ĠQuindi": 7562,
      "ĠImm": 7563,
      "Ġscience": 7564,
      "Ġstudies": 7565,
      "ĠChristmas": 7566,
      "ducing": 7567,
      "Comm": 7568,
      "Sub": 7569,
      "Ġconness": 7570,
      "UD": 7571,
      "attare": 7572,
      "ĠTeatro": 7573,
      "'d": 7574,
      "plor": 7575,
      "ifying": 7576,
      "Ġfunds": 7577,
      "Ġintorno": 7578,
      "Ġfatta": 7579,
      "Ġboost": 7580,
      "icies": 7581,
      "ĠPas": 7582,
      "ĠFerr": 7583,
      "Ġperdere": 7584,
      "Ġleadership": 7585,
      "Ġactual": 7586,
      "rency": 7587,
      "ĠUr": 7588,
      "Ġdentro": 7589,
      "oken": 7590,
      "ued": 7591,
      "Ġseguenti": 7592,
      "Ġcompared": 7593,
      "Ġinterpret": 7594,
      "Ġremain": 7595,
      "Ġfashion": 7596,
      "hel": 7597,
      "ĠSpecial": 7598,
      "Ġinteg": 7599,
      "Ġreput": 7600,
      "unning": 7601,
      "Ġnasce": 7602,
      "Ġweekend": 7603,
      "Ġscoprire": 7604,
      "Ġallowed": 7605,
      "Ġatti": 7606,
      "Ġuns": 7607,
      "SON": 7608,
      "illo": 7609,
      "Ġstick": 7610,
      "ĠMark": 7611,
      "ĠAdditionally": 7612,
      "Ġhighest": 7613,
      "ĠEast": 7614,
      "nam": 7615,
      "Ġexpertise": 7616,
      "Ġbrought": 7617,
      "ĠConn": 7618,
      "ĠCosÃ¬": 7619,
      "ĠON": 7620,
      "ä¸Ģ": 7621,
      "Ġspettacolo": 7622,
      "Ġlasc": 7623,
      "itar": 7624,
      "Ġefficient": 7625,
      "Component": 7626,
      "Ġimpress": 7627,
      "ĠMusic": 7628,
      "Ġcoffee": 7629,
      "esimo": 7630,
      "Ġterritori": 7631,
      "ĠTeam": 7632,
      "abilities": 7633,
      "Ġreports": 7634,
      "Ġcerca": 7635,
      "Ġdedicata": 7636,
      "Ġsuccessivo": 7637,
      "ĠMent": 7638,
      "voc": 7639,
      "ĠDisc": 7640,
      "Ġpieno": 7641,
      "Ġaren": 7642,
      "ĠBack": 7643,
      "Ġhomes": 7644,
      "Ġpassion": 7645,
      "ombard": 7646,
      "ĠCarlo": 7647,
      "Ġrivel": 7648,
      "ampions": 7649,
      "Ġpod": 7650,
      "ĠPat": 7651,
      "orig": 7652,
      "push": 7653,
      "Ġprove": 7654,
      "Ġcertif": 7655,
      "ĠTake": 7656,
      "Ġgaming": 7657,
      "reso": 7658,
      "Ġalone": 7659,
      "Ġdirig": 7660,
      "Ġshopping": 7661,
      "irg": 7662,
      "ĠMedic": 7663,
      "ĠWord": 7664,
      "Ġblue": 7665,
      "åĬ": 7666,
      "Ġfeet": 7667,
      "Ġpolitico": 7668,
      "ĠGall": 7669,
      "Ġgiro": 7670,
      ">(": 7671,
      "Ġviews": 7672,
      "ĠVenezia": 7673,
      "Ġdietro": 7674,
      "Ġshape": 7675,
      "Ġtrain": 7676,
      "Ġpersonaggi": 7677,
      "Group": 7678,
      "Ġsymbol": 7679,
      "IZ": 7680,
      "RL": 7681,
      "ĠWashington": 7682,
      "Ġcab": 7683,
      "ionato": 7684,
      "Ġcommento": 7685,
      "Ġdolore": 7686,
      "ismi": 7687,
      "ķĲâ": 7688,
      "Ġregione": 7689,
      "Ġlarger": 7690,
      "Ġutili": 7691,
      "ĠRob": 7692,
      "Ġdriving": 7693,
      "Ġavevano": 7694,
      "Ġdirettore": 7695,
      "Ġcapacity": 7696,
      "uovere": 7697,
      "Ã³": 7698,
      "Ġlargest": 7699,
      "Ġalber": 7700,
      "ĠDue": 7701,
      "base": 7702,
      "Ġtedes": 7703,
      "Ġobiettivi": 7704,
      "asm": 7705,
      "ĠCall": 7706,
      "Ġfinding": 7707,
      "Ġjobs": 7708,
      "Ġeuropea": 7709,
      "onde": 7710,
      "ĠDigital": 7711,
      "ĠGreat": 7712,
      "Ġderiv": 7713,
      "Ġverde": 7714,
      "ĠYear": 7715,
      "letter": 7716,
      "ĠFur": 7717,
      "ĠCourt": 7718,
      "Ġcomprehensive": 7719,
      "oles": 7720,
      "umer": 7721,
      "ĠMax": 7722,
      "Ġcuri": 7723,
      "ĠFebbraio": 7724,
      "Ġpropriet": 7725,
      "ustria": 7726,
      "Ġfurn": 7727,
      "Ġindustri": 7728,
      "estre": 7729,
      "Number": 7730,
      "Ġchanged": 7731,
      "ĠWater": 7732,
      "Ġliter": 7733,
      "Ġsmartphone": 7734,
      "Ġentertain": 7735,
      "Ġacadem": 7736,
      "Ġeconomica": 7737,
      "coming": 7738,
      "iced": 7739,
      "Ġfans": 7740,
      "Ġbillion": 7741,
      "Ġtree": 7742,
      "Ġvede": 7743,
      "ĠJames": 7744,
      "Ġ]=": 7745,
      "Ġpensiero": 7746,
      "Ġesiste": 7747,
      "Ġcredito": 7748,
      "Ġraccont": 7749,
      "abol": 7750,
      "iac": 7751,
      "Ġpratic": 7752,
      "Ġcontesto": 7753,
      "ĠSto": 7754,
      "Ġdress": 7755,
      "ja": 7756,
      "Ġchiaro": 7757,
      "ĠOffice": 7758,
      "Ġtenere": 7759,
      "ĠSoft": 7760,
      "Ġdimensioni": 7761,
      "Ġvalor": 7762,
      "Ġlock": 7763,
      "ķĲâķĲâ": 7764,
      "aker": 7765,
      "Controller": 7766,
      "cious": 7767,
      "ĠTom": 7768,
      "Ġsugger": 7769,
      "Ġpopolazione": 7770,
      "INE": 7771,
      "ĠBank": 7772,
      "esia": 7773,
      "Ġandroid": 7774,
      "Temp": 7775,
      "Ġmovement": 7776,
      "ĠTheir": 7777,
      "ĠJu": 7778,
      "ĠMA": 7779,
      "alking": 7780,
      "ignment": 7781,
      "ĠBoard": 7782,
      "enga": 7783,
      "Ġdrop": 7784,
      "Ġwasn": 7785,
      "ĠFrancia": 7786,
      "win": 7787,
      "Ġdanno": 7788,
      "Ġsicuro": 7789,
      "angue": 7790,
      "Ġfill": 7791,
      "Ġricerc": 7792,
      "Ġpicture": 7793,
      "Ġgiard": 7794,
      "Ġmalattia": 7795,
      "Ġsuperi": 7796,
      "Ġbeauty": 7797,
      "])": 7798,
      "tte": 7799,
      "Ġcrypto": 7800,
      "ilibr": 7801,
      "TC": 7802,
      "std": 7803,
      "Ġtuttavia": 7804,
      "OW": 7805,
      "ĠFirenze": 7806,
      "Ġgave": 7807,
      "Ġpac": 7808,
      "Ġdanni": 7809,
      "ĠSur": 7810,
      "Ġ##": 7811,
      "ergy": 7812,
      "ĠNetwork": 7813,
      "atever": 7814,
      "Ġwants": 7815,
      "Ġmotor": 7816,
      "Ġheard": 7817,
      "Ġestablish": 7818,
      "Ġ):": 7819,
      "Ġutilizza": 7820,
      "Ġpolice": 7821,
      "uffer": 7822,
      "astico": 7823,
      "ĠNone": 7824,
      "ĠCod": 7825,
      "Ġleaders": 7826,
      "perienze": 7827,
      "Ġcomments": 7828,
      "ĠSEO": 7829,
      "Ġgall": 7830,
      "Box": 7831,
      "egni": 7832,
      "Ġrispett": 7833,
      "ĠMot": 7834,
      "Ġfum": 7835,
      "Ġgruppi": 7836,
      "essione": 7837,
      "Ġdeveloping": 7838,
      "show": 7839,
      "etra": 7840,
      "Ġsecret": 7841,
      "Ġrifless": 7842,
      "Ġvostra": 7843,
      "ĠDirector": 7844,
      "Ġswitch": 7845,
      "Ġtrovato": 7846,
      "Comp": 7847,
      "Ġvital": 7848,
      "Ġcarbon": 7849,
      "Ġcold": 7850,
      "Ġcancer": 7851,
      "shop": 7852,
      "Ġhundred": 7853,
      "Ġwhe": 7854,
      "Ġreality": 7855,
      "Ġfarlo": 7856,
      "Ġselected": 7857,
      "ĠFort": 7858,
      "ĠBefore": 7859,
      "istan": 7860,
      "Ġnamespace": 7861,
      "Ġsettings": 7862,
      "ÃŃ": 7863,
      "ildren": 7864,
      "Ġaperto": 7865,
      "Ġshown": 7866,
      "isation": 7867,
      "cles": 7868,
      "HM": 7869,
      "Ġmette": 7870,
      "Ġwat": 7871,
      "Ġwild": 7872,
      "Ġexercise": 7873,
      "Ġsector": 7874,
      "Ġexclus": 7875,
      "othing": 7876,
      "andi": 7877,
      "Ġcommitment": 7878,
      "ints": 7879,
      "ĠBuild": 7880,
      "Ġicon": 7881,
      "Ġagg": 7882,
      "Ġwind": 7883,
      "KE": 7884,
      "edale": 7885,
      "Ġfinish": 7886,
      "ĠMarketing": 7887,
      "Ġspiega": 7888,
      "agra": 7889,
      "lements": 7890,
      "ĠFlor": 7891,
      "Ġbellezza": 7892,
      "Ġmanufactur": 7893,
      "Ġdiverso": 7894,
      "color": 7895,
      "Ġhar": 7896,
      "rol": 7897,
      "vas": 7898,
      "Ġcompleted": 7899,
      "Ġimportance": 7900,
      "Ġdriver": 7901,
      "Ġphotograph": 7902,
      "essore": 7903,
      "Ġeconomy": 7904,
      "Ġspent": 7905,
      "fficio": 7906,
      "Ġmontag": 7907,
      "Ġsola": 7908,
      "ART": 7909,
      "Ġtail": 7910,
      "Ġscore": 7911,
      "Ġannounced": 7912,
      "Ġbat": 7913,
      "ĠSul": 7914,
      "Over": 7915,
      "omeno": 7916,
      "ĠHall": 7917,
      "ĠOttobre": 7918,
      "Ġreliable": 7919,
      "ERS": 7920,
      "Ġmotivi": 7921,
      "Del": 7922,
      "ĠIsland": 7923,
      "Ġintervento": 7924,
      "dep": 7925,
      "aste": 7926,
      "ĠBene": 7927,
      "Ġsensi": 7928,
      "ĠGennaio": 7929,
      "UB": 7930,
      "Ġcontains": 7931,
      "Ġgente": 7932,
      "ĠUser": 7933,
      "astanza": 7934,
      "ĠAbbiamo": 7935,
      "Ġoggetto": 7936,
      "Ġprobabilmente": 7937,
      "Ġsinistra": 7938,
      "Ġconsiglio": 7939,
      "ded": 7940,
      "Ġmantenere": 7941,
      "ĠDicembre": 7942,
      "Ġsympt": 7943,
      "ĠMichael": 7944,
      "Ġcostruzione": 7945,
      "ĠNic": 7946,
      "Ġcristi": 7947,
      "ĠAprile": 7948,
      "ĠTO": 7949,
      "Ġdyn": 7950,
      "Em": 7951,
      "Ġredd": 7952,
      "Ġgratu": 7953,
      "ĠSatur": 7954,
      "Ġtestimoni": 7955,
      "Ġanalisi": 7956,
      "Ġdou": 7957,
      "Ġquota": 7958,
      "Ġdimost": 7959,
      "Ġfinally": 7960,
      "ĠFOR": 7961,
      "itors": 7962,
      "dat": 7963,
      "Ġconcerns": 7964,
      "Ġsources": 7965,
      "è¡": 7966,
      "Ġlibero": 7967,
      "Ġchiave": 7968,
      "Ġestablished": 7969,
      "Ġlato": 7970,
      "lad": 7971,
      "ĠWill": 7972,
      "node": 7973,
      "Ġnumerosi": 7974,
      "olutamente": 7975,
      "med": 7976,
      "Ġcondizione": 7977,
      "Ġcercare": 7978,
      "Ġmetodo": 7979,
      "ĠPur": 7980,
      "Ġactions": 7981,
      "Ġfilosof": 7982,
      "Ġnegative": 7983,
      "stituto": 7984,
      "Ġpreso": 7985,
      "inario": 7986,
      "ĠSiamo": 7987,
      "Ġsy": 7988,
      "Ġhor": 7989,
      "Ġfear": 7990,
      "ername": 7991,
      "Page": 7992,
      "olate": 7993,
      "è®": 7994,
      "Ġforms": 7995,
      "ĠLE": 7996,
      "vv": 7997,
      "??": 7998,
      "ĠColor": 7999,
      "button": 8000,
      "TT": 8001,
      "icians": 8002,
      "Ġmomenti": 8003,
      "ä¸ª": 8004,
      "Ġbetting": 8005,
      "Ġvive": 8006,
      "Ġtue": 8007,
      "unica": 8008,
      "Ġlinks": 8009,
      "ctr": 8010,
      "åŃ": 8011,
      "Ġimpieg": 8012,
      "Ġconvert": 8013,
      "Ġvoice": 8014,
      "ĠCouncil": 8015,
      "ĠAnt": 8016,
      "Ġfrequent": 8017,
      "Ġracconta": 8018,
      "idenza": 8019,
      "trice": 8020,
      "Ġcodice": 8021,
      "Ġkeeping": 8022,
      "ociazioni": 8023,
      "ĠGlobal": 8024,
      "Ġ<?": 8025,
      "Ġplug": 8026,
      "Ġcommand": 8027,
      "Ġcompagn": 8028,
      "cra": 8029,
      "Client": 8030,
      "ĠSun": 8031,
      "ĠDev": 8032,
      "ĠKeep": 8033,
      "Ġpad": 8034,
      "ATA": 8035,
      "ocra": 8036,
      "ĠInformation": 8037,
      "ĠPoi": 8038,
      "vera": 8039,
      "Ġindipend": 8040,
      "Ġadding": 8041,
      "Ġeffectively": 8042,
      "ettori": 8043,
      "Ġpap": 8044,
      "asure": 8045,
      "Ġdiretto": 8046,
      "ĠAssociation": 8047,
      "fa": 8048,
      "Ġviaggi": 8049,
      "Ġalter": 8050,
      "ĠFondazione": 8051,
      "Ġvaluable": 8052,
      "Ġesperti": 8053,
      "Status": 8054,
      "Ġabbastanza": 8055,
      "icious": 8056,
      "Ġinterface": 8057,
      "Che": 8058,
      "ĠPop": 8059,
      "Ġhospital": 8060,
      "car": 8061,
      "Ġfilter": 8062,
      "ĠBlog": 8063,
      "ĠCreat": 8064,
      "Ġnearly": 8065,
      "?âĢĿ": 8066,
      "ĠIM": 8067,
      "ĠContact": 8068,
      "Cl": 8069,
      "ĠFre": 8070,
      "Ġcivil": 8071,
      "Ġapps": 8072,
      "Ġcounter": 8073,
      "antic": 8074,
      "Ġwidth": 8075,
      "Ġpresentazione": 8076,
      "Be": 8077,
      "erie": 8078,
      "Ġcarico": 8079,
      "venture": 8080,
      "ĠTexas": 8081,
      "ulate": 8082,
      "Ġcapo": 8083,
      "Ġcasinos": 8084,
      "ĠJesus": 8085,
      "poste": 8086,
      "Ġearlier": 8087,
      "ĠThanks": 8088,
      "Ġschedule": 8089,
      "Ġturned": 8090,
      "Ġdirezione": 8091,
      "Ġforze": 8092,
      "ading": 8093,
      "Ġplants": 8094,
      "amica": 8095,
      "Ġcolors": 8096,
      "Ġlaunch": 8097,
      "md": 8098,
      "evol": 8099,
      "Ġtalent": 8100,
      "ulare": 8101,
      "ĠsÃ¬": 8102,
      "summary": 8103,
      "yth": 8104,
      "Ġcondivid": 8105,
      "Ġnp": 8106,
      "ĠUno": 8107,
      "Ġprofessionisti": 8108,
      "ĠNav": 8109,
      "Ġsociety": 8110,
      "ĠConc": 8111,
      "ĠCD": 8112,
      "Ġburn": 8113,
      "Ġowner": 8114,
      "Ġvert": 8115,
      "ĠEngine": 8116,
      "ĠKey": 8117,
      "ĠMonte": 8118,
      "Ġtutela": 8119,
      "Ġsharing": 8120,
      "porre": 8121,
      "Ġroot": 8122,
      "igo": 8123,
      "ĠAC": 8124,
      "Ġgather": 8125,
      "ĠThank": 8126,
      "Ġpresto": 8127,
      "going": 8128,
      "Ġallen": 8129,
      "Ġtherefore": 8130,
      "lation": 8131,
      "Ġinterpre": 8132,
      "ĠStat": 8133,
      "Ġhelped": 8134,
      "Ġmeasures": 8135,
      "Ġconfronto": 8136,
      "Ġod": 8137,
      "ĠHave": 8138,
      "Ġindag": 8139,
      "autore": 8140,
      "lev": 8141,
      "Ġmiddle": 8142,
      "ificio": 8143,
      "Ġvs": 8144,
      "Ġpiccole": 8145,
      "Ġgirl": 8146,
      "Ġcambiare": 8147,
      "Ġcreat": 8148,
      "uttore": 8149,
      "Ġnavigazione": 8150,
      "onico": 8151,
      "message": 8152,
      "ĠQui": 8153,
      "Ġoriginale": 8154,
      "Gener": 8155,
      "Ġowners": 8156,
      "Ġatmos": 8157,
      "Ġtecnologie": 8158,
      "Ġeth": 8159,
      "aug": 8160,
      "ĠSettembre": 8161,
      "Ġgestire": 8162,
      "Ġencourag": 8163,
      "Ġefficiency": 8164,
      "Ġparties": 8165,
      "Ġevento": 8166,
      "Ġesperienze": 8167,
      "Ġlegno": 8168,
      "Ġcalend": 8169,
      "Ġumano": 8170,
      "Ġottim": 8171,
      "olean": 8172,
      "Ġsurv": 8173,
      "Ġmagari": 8174,
      "Ġassistance": 8175,
      "ĠOb": 8176,
      "PL": 8177,
      "azine": 8178,
      "Ġfoss": 8179,
      "Ġtv": 8180,
      "ĠlÃ¬": 8181,
      "Ġlots": 8182,
      "lib": 8183,
      "ATION": 8184,
      "ĠfinalitÃł": 8185,
      "ĠDownload": 8186,
      "rano": 8187,
      "fast": 8188,
      "fera": 8189,
      "Ġaccesso": 8190,
      "Ġcompens": 8191,
      "ĠCommunity": 8192,
      "ĠEducation": 8193,
      "Ġstuff": 8194,
      "Ġpair": 8195,
      "acquisto": 8196,
      "ĠBon": 8197,
      "Ġæ": 8198,
      "Ġnar": 8199,
      "ĠLeague": 8200,
      "Ġsimb": 8201,
      "ĠSupp": 8202,
      "unit": 8203,
      "Ġ?>": 8204,
      "ĠIts": 8205,
      "ĠSito": 8206,
      "Ġannual": 8207,
      "Ġprocessing": 8208,
      "ln": 8209,
      "Ġfeedback": 8210,
      "ĠVers": 8211,
      "etch": 8212,
      "Ġdatabase": 8213,
      "known": 8214,
      "Ġfiss": 8215,
      "ĠAS": 8216,
      "Ġpieces": 8217,
      "Ġitaliane": 8218,
      "Ġmessaggio": 8219,
      "Ġmode": 8220,
      "immagine": 8221,
      "ĠĠĠĠĠĠĠĠĠĠ": 8222,
      "Ġmassima": 8223,
      "Ġpresence": 8224,
      "ĠTerra": 8225,
      "den": 8226,
      "Ġbecomes": 8227,
      "format": 8228,
      "Ġ>>": 8229,
      "Ġpartners": 8230,
      "Ġframe": 8231,
      "Ġovviamente": 8232,
      "ĠFranc": 8233,
      "ithub": 8234,
      "Ġcompat": 8235,
      "Ġmaybe": 8236,
      "web": 8237,
      "Ġcontributo": 8238,
      "ĠGL": 8239,
      "Ġbehavior": 8240,
      "Trans": 8241,
      "adi": 8242,
      "Ġotherwise": 8243,
      "ĠSunday": 8244,
      "Ð»": 8245,
      "style": 8246,
      "Ġscom": 8247,
      "Ġvoglia": 8248,
      "Ġscelto": 8249,
      "itazioni": 8250,
      "anner": 8251,
      "Ġconstruct": 8252,
      "Ġcompetenze": 8253,
      "arning": 8254,
      "........": 8255,
      "Ġlen": 8256,
      "ste": 8257,
      "Ġmemory": 8258,
      "Ġsostitu": 8259,
      "Ġ%,": 8260,
      "ĠSecurity": 8261,
      "Ġvalutazione": 8262,
      "ĠCopyright": 8263,
      "Ġnotizie": 8264,
      "ĠPalazzo": 8265,
      "Ġargom": 8266,
      "Ġdiam": 8267,
      "accesso": 8268,
      "ĠDevelopment": 8269,
      "Ġcanz": 8270,
      "Ġassicur": 8271,
      "Ġfacci": 8272,
      "](": 8273,
      "ĠĠĠĠĠĠĠĠĠĠĠĠĠĠĠĠĠ": 8274,
      "Ġknew": 8275,
      "level": 8276,
      "Ġprotocol": 8277,
      "guardo": 8278,
      "while": 8279,
      "Ġclimate": 8280,
      "tex": 8281,
      "Ġbol": 8282,
      "Ġriun": 8283,
      "ĠPaesi": 8284,
      "ogliamo": 8285,
      "Ġfunctions": 8286,
      "ĠLicense": 8287,
      "ĠSicilia": 8288,
      "ĠLeggi": 8289,
      "Ġcomponents": 8290,
      "PC": 8291,
      "Ġnoto": 8292,
      "Ġcul": 8293,
      "Ġpassare": 8294,
      "next": 8295,
      "Ġeffettuare": 8296,
      "Ġmetal": 8297,
      "Ġinglese": 8298,
      "ĠBlue": 8299,
      "Ġmarkets": 8300,
      "Ġseeking": 8301,
      "ĠShow": 8302,
      "ORT": 8303,
      "eb": 8304,
      "Ġrecente": 8305,
      "oggi": 8306,
      "Ġarrest": 8307,
      "Ġfres": 8308,
      "Ġcomunale": 8309,
      "Ġcovered": 8310,
      "ĠNell": 8311,
      "Ġaccad": 8312,
      "Ġol": 8313,
      "Ġrace": 8314,
      "ĠGa": 8315,
      "ipped": 8316,
      "Ġvoc": 8317,
      "Ġridurre": 8318,
      "coni": 8319,
      "Ġorganizz": 8320,
      "Ġstri": 8321,
      "ounter": 8322,
      "update": 8323,
      "Ġulteriori": 8324,
      "Ġfederal": 8325,
      "Ġmezzi": 8326,
      "Ġoffrire": 8327,
      "Ġwedding": 8328,
      "Ġdepending": 8329,
      "ĠopportunitÃł": 8330,
      "ĠTim": 8331,
      "Ġcup": 8332,
      "atoria": 8333,
      "sv": 8334,
      "occasione": 8335,
      "ĠPlan": 8336,
      "tery": 8337,
      "Ġriti": 8338,
      "elines": 8339,
      "irittura": 8340,
      "ILE": 8341,
      "ĠPad": 8342,
      "lan": 8343,
      "ĠRock": 8344,
      "Ġwaste": 8345,
      "Ġhimself": 8346,
      "left": 8347,
      "Ġcompos": 8348,
      "Ġprofile": 8349,
      "Ġexpand": 8350,
      "alog": 8351,
      "ezioni": 8352,
      "stances": 8353,
      "Ġbasta": 8354,
      "ĠBay": 8355,
      "ĠLab": 8356,
      "ĠSl": 8357,
      "Ġfunzioni": 8358,
      "Ġtecnici": 8359,
      "Ġcann": 8360,
      "ran": 8361,
      "Ġimped": 8362,
      "Ġtrovano": 8363,
      "ughter": 8364,
      "ĠMatte": 8365,
      "ĠSpir": 8366,
      "ĠIV": 8367,
      "icoli": 8368,
      "ĠLim": 8369,
      "GL": 8370,
      "Ġsangue": 8371,
      "onc": 8372,
      "Ġstreaming": 8373,
      "Ġafferma": 8374,
      "Ġcompi": 8375,
      "Ġpassaggio": 8376,
      "Ġremains": 8377,
      "Ġtemi": 8378,
      "Ġterr": 8379,
      "Ġlose": 8380,
      "Ġconnected": 8381,
      "Ġazienda": 8382,
      "example": 8383,
      "Ġtalking": 8384,
      "ĠSand": 8385,
      "********************************": 8386,
      "uns": 8387,
      "ĠFac": 8388,
      "pay": 8389,
      "Ġcorsi": 8390,
      "Ġcibo": 8391,
      "isola": 8392,
      "attenzione": 8393,
      "ĠvenerdÃ¬": 8394,
      "Ġrestrict": 8395,
      "Ġinizia": 8396,
      "Ġbuying": 8397,
      "Ġhealthcare": 8398,
      "Ġconferma": 8399,
      "attie": 8400,
      "han": 8401,
      "Ġfigura": 8402,
      "Ġiniziative": 8403,
      "ĠOpt": 8404,
      "incontro": 8405,
      "Table": 8406,
      "Ġutilizzo": 8407,
      "Ġfish": 8408,
      "Ġdocumento": 8409,
      "Ġinternal": 8410,
      "Ġterap": 8411,
      "Ġviolenza": 8412,
      "Ġtranqu": 8413,
      "Ġrender": 8414,
      "ĠProfession": 8415,
      "ĠInstitute": 8416,
      "Ġsud": 8417,
      "Ġradi": 8418,
      "Ġstorie": 8419,
      "Ġelabor": 8420,
      "Ġultime": 8421,
      "acters": 8422,
      "Ġfees": 8423,
      "ĠFu": 8424,
      "Ġcoverage": 8425,
      "ĠGl": 8426,
      "Ġpolicies": 8427,
      "Ġartisti": 8428,
      "ĠEnter": 8429,
      "ĠItaly": 8430,
      "ĠControl": 8431,
      "ĠMario": 8432,
      "Ġcres": 8433,
      "Ġbenessere": 8434,
      "Ġoperatori": 8435,
      "uma": 8436,
      "Ġprocessi": 8437,
      "Ġdirection": 8438,
      "ĠGiugno": 8439,
      "Des": 8440,
      "Ġcolumn": 8441,
      "Ġpanor": 8442,
      "Ġnode": 8443,
      "stream": 8444,
      "ĠMonday": 8445,
      "inanza": 8446,
      "Ġriesce": 8447,
      "Ġmarch": 8448,
      "ĠavrÃł": 8449,
      "ĠCA": 8450,
      "Ġheavy": 8451,
      "Ġsoli": 8452,
      "ĠAccess": 8453,
      "ĠMuseo": 8454,
      "Ġbeni": 8455,
      "Rec": 8456,
      "Ġrub": 8457,
      "Ġtum": 8458,
      "Pr": 8459,
      "private": 8460,
      "armi": 8461,
      "Ġwelcome": 8462,
      "Ġlux": 8463,
      "using": 8464,
      "yer": 8465,
      "ĠLuc": 8466,
      "Ġalthough": 8467,
      "Ġproperly": 8468,
      "Ġcomprom": 8469,
      "aso": 8470,
      "Ġacquistare": 8471,
      "itness": 8472,
      "iffer": 8473,
      "Ġdecisione": 8474,
      "ĠPlus": 8475,
      "Ġaccom": 8476,
      "Ġfed": 8477,
      "Ġrelig": 8478,
      "ĠJos": 8479,
      "Ġassolutamente": 8480,
      "Ġcombination": 8481,
      "Ġrapporti": 8482,
      "Ġingredients": 8483,
      "Ġsig": 8484,
      "Ġpoor": 8485,
      "=>": 8486,
      "Ġded": 8487,
      "Ġprecedenti": 8488,
      "Ġordine": 8489,
      "Ġpaes": 8490,
      "Ġproviders": 8491,
      "ĠvelocitÃł": 8492,
      "Ġsweet": 8493,
      "Ġtasks": 8494,
      "Ġdirector": 8495,
      "Ġwinter": 8496,
      "anned": 8497,
      "Ġlooked": 8498,
      "ĠRoad": 8499,
      "ĠIndian": 8500,
      "ĠCommissione": 8501,
      "Ġmediante": 8502,
      "ĠBal": 8503,
      "ĠSimp": 8504,
      "END": 8505,
      "Ġinternazionali": 8506,
      "ĠPhil": 8507,
      "Ġguad": 8508,
      "Ġcapitale": 8509,
      "reti": 8510,
      "rore": 8511,
      "ĠFollow": 8512,
      "number": 8513,
      "Ġbecoming": 8514,
      "ĠWH": 8515,
      "first": 8516,
      "Ġstrani": 8517,
      "Ġfib": 8518,
      "Ġcorrispond": 8519,
      "lang": 8520,
      "Ġofferte": 8521,
      "Ġvan": 8522,
      "Ġsurg": 8523,
      "Ġrecommended": 8524,
      "Tube": 8525,
      "ĠWhere": 8526,
      "rab": 8527,
      "Ġenvironmental": 8528,
      "Ġcaff": 8529,
      "Ġdocuments": 8530,
      "Ġconseguenza": 8531,
      "Ġwonderful": 8532,
      "ĠChristian": 8533,
      "Ġreli": 8534,
      "ĠPress": 8535,
      "rico": 8536,
      "Ġvino": 8537,
      "Ġhelpful": 8538,
      "Ġbrain": 8539,
      "ĠAlcun": 8540,
      "Ġteatro": 8541,
      "Ġcontinues": 8542,
      "Ġapprezz": 8543,
      "friendly": 8544,
      "ĠTro": 8545,
      "void": 8546,
      "Ġpromote": 8547,
      "Ġcambiamento": 8548,
      "Ġexciting": 8549,
      "Ġinfine": 8550,
      "Ġfacilmente": 8551,
      "Ġmg": 8552,
      "Ġgraf": 8553,
      "Response": 8554,
      "Ġschi": 8555,
      "Ġessa": 8556,
      "izion": 8557,
      "ĠGermania": 8558,
      "Op": 8559,
      "Ġfred": 8560,
      "Ġfesta": 8561,
      "life": 8562,
      "estyle": 8563,
      "ecn": 8564,
      "vedÃ¬": 8565,
      "Ġmit": 8566,
      "ĠCEO": 8567,
      "ĠDom": 8568,
      "Ġaccident": 8569,
      "ĠStefano": 8570,
      "QL": 8571,
      "Ġdifesa": 8572,
      "ĠMatt": 8573,
      "Associazione": 8574,
      "ĠCiÃ²": 8575,
      "CON": 8576,
      "Ġriconosci": 8577,
      "ĠDomen": 8578,
      "Ġpiacere": 8579,
      "################": 8580,
      "Ġcalcul": 8581,
      "tribute": 8582,
      "ĠWho": 8583,
      "ĠiPhone": 8584,
      "Ġraise": 8585,
      "Ġtrag": 8586,
      "ĠPhoto": 8587,
      "Ġspecifico": 8588,
      "lag": 8589,
      "inding": 8590,
      "ANO": 8591,
      "force": 8592,
      "Ġefficace": 8593,
      "Ġimpianti": 8594,
      "Ġsymptoms": 8595,
      "ĠLive": 8596,
      "osis": 8597,
      "Ġbiggest": 8598,
      "Ġtried": 8599,
      "ĠCorte": 8600,
      "Ġtornare": 8601,
      "ĠRedazione": 8602,
      "Ø§": 8603,
      "Ġclasses": 8604,
      "dr": 8605,
      "uries": 8606,
      "Ġpresentato": 8607,
      "ĠPietro": 8608,
      "Ġslight": 8609,
      "airs": 8610,
      "lete": 8611,
      "eless": 8612,
      "Ġviss": 8613,
      "Ġcompleta": 8614,
      "Ġbianco": 8615,
      "Ġpark": 8616,
      "Ġsuitable": 8617,
      "ĠManager": 8618,
      "Ġfather": 8619,
      "Ġopening": 8620,
      "overs": 8621,
      "ĠJour": 8622,
      "Ġign": 8623,
      "ALL": 8624,
      "ĠLuglio": 8625,
      "Ġaspects": 8626,
      "Ġaccedere": 8627,
      "Ġripro": 8628,
      "periment": 8629,
      "icks": 8630,
      "Ġrare": 8631,
      "Ġdann": 8632,
      "Ġmerav": 8633,
      "Ġpic": 8634,
      "Ġmaximum": 8635,
      "ĠNote": 8636,
      "etime": 8637,
      "Ġgiusti": 8638,
      "mt": 8639,
      "ĠMiss": 8640,
      "Ġprepared": 8641,
      "Ġquarti": 8642,
      "ĠBritish": 8643,
      "ĠFer": 8644,
      "Ġsand": 8645,
      "Ġplenty": 8646,
      "Ġvale": 8647,
      "arp": 8648,
      "Ġentrare": 8649,
      "ASS": 8650,
      "Ġlayer": 8651,
      "lection": 8652,
      "Ġtherapy": 8653,
      "Ġrelativi": 8654,
      "ĠScience": 8655,
      "itudine": 8656,
      "Ġdipendenti": 8657,
      "Ġpow": 8658,
      "Ġdobbiamo": 8659,
      "economia": 8660,
      "ĠĉĉĊ": 8661,
      "Ġaddirittura": 8662,
      "ordi": 8663,
      "ĠCookie": 8664,
      "Ġprogett": 8665,
      "Ġperdita": 8666,
      "Ġspons": 8667,
      "Ġmentioned": 8668,
      "Ġambiente": 8669,
      "Ġesclusivamente": 8670,
      "ommod": 8671,
      "Ġprestazioni": 8672,
      "Ġrisulta": 8673,
      "otal": 8674,
      "Ġpreno": 8675,
      "ettings": 8676,
      "usura": 8677,
      "eremo": 8678,
      "Ġaiutare": 8679,
      "ĠRoberto": 8680,
      "Ġriman": 8681,
      "Ġmilitary": 8682,
      "Fi": 8683,
      "pir": 8684,
      "occhi": 8685,
      "tes": 8686,
      "Ġtorna": 8687,
      "estate": 8688,
      "ĠRa": 8689,
      "ego": 8690,
      "ĠThom": 8691,
      "Ġvary": 8692,
      "ovo": 8693,
      "Ġinstallation": 8694,
      "ĠSaturday": 8695,
      "Ġesso": 8696,
      "fferta": 8697,
      "inti": 8698,
      "Ġcells": 8699,
      "Ġincontr": 8700,
      "dev": 8701,
      "Ġ/>": 8702,
      "Ġaspett": 8703,
      "ĠFoundation": 8704,
      "Ġoperation": 8705,
      "Ġcogn": 8706,
      "Ġtemplate": 8707,
      "pg": 8708,
      "Ġresource": 8709,
      "Ġcalls": 8710,
      "Ġfisica": 8711,
      "ĠLight": 8712,
      "Ġvuoi": 8713,
      "Ġclassic": 8714,
      "antages": 8715,
      "emi": 8716,
      "ortare": 8717,
      "Ġpopulation": 8718,
      "ties": 8719,
      "Ġthanks": 8720,
      "Ġchiesa": 8721,
      "Ġtechnologies": 8722,
      "Ġappassion": 8723,
      "QU": 8724,
      "Ġsolito": 8725,
      "Ġfiducia": 8726,
      "ĠNO": 8727,
      "Ġoperating": 8728,
      "Ġnaturali": 8729,
      "Ġfestival": 8730,
      "ĠInfatti": 8731,
      "main": 8732,
      "Ġcourses": 8733,
      "ĠStudio": 8734,
      "Ġcultural": 8735,
      "Ġseparate": 8736,
      "Ġprezi": 8737,
      "ĠCristo": 8738,
      "unately": 8739,
      "Ġcaused": 8740,
      "iterr": 8741,
      "Ġdoctor": 8742,
      "ĠLou": 8743,
      "Ġlista": 8744,
      "Ġemployee": 8745,
      "Ġrat": 8746,
      "Ġliquid": 8747,
      "ĠSav": 8748,
      "Ġrandom": 8749,
      "Ġperhaps": 8750,
      "ĠSeg": 8751,
      "rote": 8752,
      "uting": 8753,
      "Ġchoices": 8754,
      "Ġmagn": 8755,
      "Ġtruth": 8756,
      "Ġminimum": 8757,
      "Ġdu": 8758,
      "Ġtrasporto": 8759,
      "Ġinteressante": 8760,
      "utti": 8761,
      "Ġseeing": 8762,
      "Ġintrod": 8763,
      "igation": 8764,
      "Ġrow": 8765,
      "Ġsplend": 8766,
      "Ġfloat": 8767,
      "Ġbrands": 8768,
      "Ġiniziato": 8769,
      "Ġavanz": 8770,
      "Ġexplor": 8771,
      "Ġripet": 8772,
      "Ġlaws": 8773,
      "Ġterror": 8774,
      "png": 8775,
      "resti": 8776,
      "Ġcompetition": 8777,
      "ĠPapa": 8778,
      "Ġscal": 8779,
      "ĠProt": 8780,
      "Ġsegno": 8781,
      "Ġnessun": 8782,
      "Ġaumento": 8783,
      "Ġeuropeo": 8784,
      "Ġsom": 8785,
      "inizi": 8786,
      "ĠCass": 8787,
      "Ġ])": 8788,
      "lino": 8789,
      "Ġsteel": 8790,
      "Click": 8791,
      "Ġvantaggi": 8792,
      "ĠAlessandro": 8793,
      "iki": 8794,
      "Ġcapelli": 8795,
      "ĠScop": 8796,
      "Ġsingolo": 8797,
      "Ġinterno": 8798,
      "can": 8799,
      "ĠCBD": 8800,
      "Ġmes": 8801,
      "Ġfocused": 8802,
      "osce": 8803,
      "Ġwhose": 8804,
      "Ġfacilities": 8805,
      "ĠCina": 8806,
      "Ġsrc": 8807,
      "ĠEU": 8808,
      "Ġfuoco": 8809,
      "Ġnero": 8810,
      "Ġprovoc": 8811,
      "local": 8812,
      "ĠAcqu": 8813,
      "Ġpersp": 8814,
      "oster": 8815,
      "Ġlotta": 8816,
      "Ġsugar": 8817,
      "ĠvolontÃł": 8818,
      "erebbe": 8819,
      "Ġaccounts": 8820,
      "Ġtipi": 8821,
      "Ġfede": 8822,
      "ĠWed": 8823,
      "anim": 8824,
      "Ġchanging": 8825,
      "client": 8826,
      "Ġcontinued": 8827,
      "Ġminer": 8828,
      "Ġexchange": 8829,
      "etri": 8830,
      "ĠCav": 8831,
      "Ġdestra": 8832,
      "gener": 8833,
      "inari": 8834,
      "Ġnet": 8835,
      "github": 8836,
      "ĠEvent": 8837,
      "Ġmedio": 8838,
      "âĢĻ,": 8839,
      "Ġminim": 8840,
      "Ġexhib": 8841,
      "ĠSupport": 8842,
      "vention": 8843,
      "olit": 8844,
      "oring": 8845,
      "Ġgenerate": 8846,
      "Ġfrancese": 8847,
      "enco": 8848,
      "Ġvisitors": 8849,
      "ULT": 8850,
      "ĠUlt": 8851,
      "Ġworry": 8852,
      "ITA": 8853,
      "bles": 8854,
      "ileg": 8855,
      "Ġgent": 8856,
      "ĠAuthor": 8857,
      "ĠCR": 8858,
      "Ġserved": 8859,
      "orale": 8860,
      "write": 8861,
      "ĠCa": 8862,
      "Ġdeleg": 8863,
      "Ġagency": 8864,
      "Ġgiocare": 8865,
      "ĠDurante": 8866,
      "ĠEnd": 8867,
      "razioni": 8868,
      "Ġadesso": 8869,
      "Ġdifferenti": 8870,
      "uci": 8871,
      "ĠNE": 8872,
      "associazione": 8873,
      "Ġ^": 8874,
      "Ġlaure": 8875,
      "float": 8876,
      "Ġtroub": 8877,
      "ĠInst": 8878,
      "Ġshift": 8879,
      "Ġcomplesso": 8880,
      "Ġoutdoor": 8881,
      "Ġsmaller": 8882,
      "ĠSmart": 8883,
      "Ġforeign": 8884,
      "Ġcopert": 8885,
      "Ġadapt": 8886,
      "Ġposit": 8887,
      "Ġsoggetto": 8888,
      "Ġdimin": 8889,
      "ĠExt": 8890,
      "Ġenable": 8891,
      "ilomet": 8892,
      "ĠDA": 8893,
      "oke": 8894,
      "iding": 8895,
      "Ġprofit": 8896,
      "GI": 8897,
      "hetic": 8898,
      "Ġstret": 8899,
      "Ġavvic": 8900,
      "Ġvibr": 8901,
      "ician": 8902,
      "fin": 8903,
      "ĠFrench": 8904,
      "Ġnumeri": 8905,
      "Conn": 8906,
      "Ġcapit": 8907,
      "Ġricevere": 8908,
      "Ġdieci": 8909,
      "Ġcarattere": 8910,
      "mitted": 8911,
      "ĠSaf": 8912,
      "ampa": 8913,
      "Ġincent": 8914,
      "Ġmachines": 8915,
      "ĠUm": 8916,
      "\"),": 8917,
      "ĠYouTube": 8918,
      "Ġsituazioni": 8919,
      "Ġmacchina": 8920,
      "Ġnotizia": 8921,
      "Ġromanzo": 8922,
      "Ġscelte": 8923,
      "Ġwife": 8924,
      "ĠTechnology": 8925,
      "ĠCreate": 8926,
      "Ġupdated": 8927,
      "åº": 8928,
      "Ġagreement": 8929,
      "position": 8930,
      "Ġseven": 8931,
      "Ġleggi": 8932,
      "Ġcrus": 8933,
      "Ġnamed": 8934,
      "Ġero": 8935,
      "Ġnato": 8936,
      "ĠTrib": 8937,
      "Ġgrant": 8938,
      "ĠThrough": 8939,
      "axis": 8940,
      "Unione": 8941,
      "ander": 8942,
      "men": 8943,
      "break": 8944,
      "Ġsignificantly": 8945,
      "Ġstare": 8946,
      "\",\"": 8947,
      "Ġrecords": 8948,
      "Ġfee": 8949,
      "encing": 8950,
      "Ġilleg": 8951,
      "riter": 8952,
      "Play": 8953,
      "ĠGiorn": 8954,
      "ĠfunzionalitÃł": 8955,
      "Web": 8956,
      "Ġmini": 8957,
      "arietÃł": 8958,
      "eserc": 8959,
      "Ã¼": 8960,
      "ĠFlorida": 8961,
      "Ġcreazione": 8962,
      "Ġpartecipare": 8963,
      "Ġinjury": 8964,
      "Query": 8965,
      "Ġverranno": 8966,
      "Ġpericol": 8967,
      "Ġrisks": 8968,
      "product": 8969,
      "ĠSus": 8970,
      "FL": 8971,
      "POST": 8972,
      "Ġgiocatori": 8973,
      "Ġcontrario": 8974,
      "Ġproposte": 8975,
      "Ġvoluto": 8976,
      "atile": 8977,
      "Ġinteressi": 8978,
      "Ġclaims": 8979,
      "Ġincont": 8980,
      "tainer": 8981,
      "Ġshipping": 8982,
      "Ġdiscount": 8983,
      "ĠQue": 8984,
      "Ġpandemia": 8985,
      "Ġagree": 8986,
      "Ġfondi": 8987,
      "istory": 8988,
      "ME": 8989,
      "Ġgarden": 8990,
      "Ġideale": 8991,
      "olutely": 8992,
      "Ġdro": 8993,
      "Ġ===": 8994,
      "Ġiron": 8995,
      "idera": 8996,
      "Ġformula": 8997,
      "Ġpassed": 8998,
      "ĠArg": 8999,
      "analisi": 9000,
      "ĠBitcoin": 9001,
      "Action": 9002,
      "Se": 9003,
      "CL": 9004,
      "Ġcarriera": 9005,
      "Ġdevi": 9006,
      "Ġveramente": 9007,
      "Ġvice": 9008,
      "ĠAdv": 9009,
      "grade": 9010,
      "Ġpoche": 9011,
      "Ġproteg": 9012,
      "(&": 9013,
      "Ġfollowed": 9014,
      "Ġpossano": 9015,
      "Ġacceler": 9016,
      "Ġpopolo": 9017,
      "edom": 9018,
      "ĠdÃł": 9019,
      "ĠSpec": 9020,
      "ĠConsider": 9021,
      "tw": 9022,
      "Ġjoint": 9023,
      "ĠUnder": 9024,
      "ĠUsing": 9025,
      "ttp": 9026,
      "Ġleads": 9027,
      "iability": 9028,
      "Ġslots": 9029,
      "ĠPremi": 9030,
      "ĠPiazza": 9031,
      "ĠHD": 9032,
      "Ġdispositivo": 9033,
      "Ġtopic": 9034,
      "ĠStand": 9035,
      "Ġcommenti": 9036,
      "Ġproduced": 9037,
      "itura": 9038,
      "iet": 9039,
      "Ġconform": 9040,
      "ĠOffic": 9041,
      "block": 9042,
      "Ġdover": 9043,
      "outs": 9044,
      "Ġship": 9045,
      "ĠGior": 9046,
      "Ġnutri": 9047,
      "HMspace": 9048,
      "Ġtant": 9049,
      "service": 9050,
      "ĠAcadem": 9051,
      "ecture": 9052,
      "Ġprofond": 9053,
      "Ġeffetto": 9054,
      "ĠBet": 9055,
      "Ġassets": 9056,
      "Ġtests": 9057,
      "ided": 9058,
      "Ġlinee": 9059,
      "ĠOh": 9060,
      "Ġsuperfic": 9061,
      "yal": 9062,
      "Ġprepare": 9063,
      "default": 9064,
      "anges": 9065,
      "Ġ(\"": 9066,
      "Ġcharacters": 9067,
      "null": 9068,
      "igger": 9069,
      "poses": 9070,
      "Ġshoot": 9071,
      "epoca": 9072,
      "(){": 9073,
      "Ġthank": 9074,
      "etic": 9075,
      "ĠSuccess": 9076,
      "Ġtaste": 9077,
      "Ġdanger": 9078,
      "Ġlearned": 9079,
      "ensions": 9080,
      "Ġriguardo": 9081,
      "Ġfacilit": 9082,
      "version": 9083,
      "arle": 9084,
      "Ġestim": 9085,
      "Ġregol": 9086,
      "script": 9087,
      "ĠReport": 9088,
      "Ġpandemic": 9089,
      "Press": 9090,
      "ĠHand": 9091,
      "verage": 9092,
      "etails": 9093,
      "Ġpotuto": 9094,
      "Ġmoved": 9095,
      "Ġdesk": 9096,
      "ĠChris": 9097,
      "Ġchiedere": 9098,
      "PU": 9099,
      "Ġrelazioni": 9100,
      "Ġumani": 9101,
      "Tag": 9102,
      "PI": 9103,
      "Ġwinning": 9104,
      "iveness": 9105,
      "Ġteaching": 9106,
      "ĠMach": 9107,
      "rendo": 9108,
      "Ġplaced": 9109,
      "Ġlad": 9110,
      "Ġriduzione": 9111,
      "cribe": 9112,
      "ĠTar": 9113,
      "select": 9114,
      "Ġspin": 9115,
      "Ġonto": 9116,
      "ĠElectr": 9117,
      "Ġessi": 9118,
      "inia": 9119,
      "Ġolder": 9120,
      "liot": 9121,
      "Ġipot": 9122,
      "Ġterza": 9123,
      "Ġstrade": 9124,
      "olazioni": 9125,
      "Ġcomponent": 9126,
      "ĠLine": 9127,
      "Ġfriendly": 9128,
      "ĠMain": 9129,
      "Ġdistance": 9130,
      "System": 9131,
      "Ġurl": 9132,
      "ibly": 9133,
      "Ġoggetti": 9134,
      "Ġpropone": 9135,
      "ii": 9136,
      "accordo": 9137,
      "aming": 9138,
      "Ġfaith": 9139,
      "Ġaspetto": 9140,
      "ĠMary": 9141,
      "ĠFurther": 9142,
      "Ġsacr": 9143,
      "ĠBud": 9144,
      "orage": 9145,
      "Ġparad": 9146,
      "ĠTwo": 9147,
      "enne": 9148,
      "apes": 9149,
      "asts": 9150,
      "Ġrepe": 9151,
      "Ġpsych": 9152,
      "DI": 9153,
      "Ġconveni": 9154,
      "Ġcircum": 9155,
      "ĠChinese": 9156,
      "ĠOnly": 9157,
      "Ġpredict": 9158,
      "Ġcommerciale": 9159,
      "Pt": 9160,
      "uts": 9161,
      "onds": 9162,
      "endosi": 9163,
      "Ġsvolg": 9164,
      "Ġcommitted": 9165,
      "Ġquarter": 9166,
      "Ġnord": 9167,
      "ĠLove": 9168,
      "ENTO": 9169,
      "Ġpictures": 9170,
      "Ġpresident": 9171,
      "You": 9172,
      "vista": 9173,
      "Ġdocumenti": 9174,
      "Ġmessa": 9175,
      "Ġnascita": 9176,
      "Ġfunding": 9177,
      "ĠFilm": 9178,
      "Ġtub": 9179,
      "Ġsustainable": 9180,
      "Ġoperazioni": 9181,
      "Ġserata": 9182,
      "Gra": 9183,
      "lli": 9184,
      "Ġresidents": 9185,
      "Ġadvertising": 9186,
      "anged": 9187,
      "Ġecce": 9188,
      "Ġpartito": 9189,
      "Ġfactor": 9190,
      "ĠCli": 9191,
      "akes": 9192,
      "From": 9193,
      "ĠHead": 9194,
      "Ġmanifestazione": 9195,
      "ji": 9196,
      "Ġapplica": 9197,
      "Ġregime": 9198,
      "Ġhyd": 9199,
      "Ġexpensive": 9200,
      "æĹ": 9201,
      "Ġcoppia": 9202,
      "Ġbattery": 9203,
      "obj": 9204,
      "BO": 9205,
      "Ġdispositivi": 9206,
      "Ġfunziona": 9207,
      "ĠRoy": 9208,
      "Ġnemmeno": 9209,
      "Ġaumentare": 9210,
      "Ġconsumers": 9211,
      "Ġselling": 9212,
      "Ġdecreto": 9213,
      "ĠGab": 9214,
      "Ġdesigns": 9215,
      "PD": 9216,
      "Ġchurch": 9217,
      "sl": 9218,
      "Ġpatrimonio": 9219,
      "ĠâĢ²": 9220,
      "Ġhappens": 9221,
      "Ġsco": 9222,
      "Ġambientale": 9223,
      "ĠFA": 9224,
      "Ġstesse": 9225,
      "response": 9226,
      "Ġbib": 9227,
      "Ġprecis": 9228,
      "Ġta": 9229,
      "Ġfunzionamento": 9230,
      "ocation": 9231,
      "Ġsets": 9232,
      "AME": 9233,
      "agg": 9234,
      "liare": 9235,
      "Ġaccurate": 9236,
      "Ġacquist": 9237,
      "FT": 9238,
      "Ġmasch": 9239,
      "Ġsfida": 9240,
      "Ġspecifically": 9241,
      "ĠBur": 9242,
      "Ġfinalmente": 9243,
      "ormal": 9244,
      "Ġquell": 9245,
      "Ġscat": 9246,
      "ĠCommission": 9247,
      "Ġminimo": 9248,
      "iri": 9249,
      "ĠMu": 9250,
      "Ġfields": 9251,
      "Ġindependent": 9252,
      "ifications": 9253,
      "Ġseek": 9254,
      "Ġmiglia": 9255,
      "Ġmista": 9256,
      "Ġbrings": 9257,
      "related": 9258,
      "Ġspending": 9259,
      "Ġposts": 9260,
      "Ġposso": 9261,
      "ira": 9262,
      "usion": 9263,
      "Ġproget": 9264,
      "Str": 9265,
      "ĠBor": 9266,
      "ĠScuola": 9267,
      "Ġalcuna": 9268,
      "Ġparticolari": 9269,
      "Ġaccommod": 9270,
      "Ġedge": 9271,
      "enni": 9272,
      "ĠSolo": 9273,
      "Ġcrim": 9274,
      "ĠVirg": 9275,
      "Ġgel": 9276,
      "ĠEX": 9277,
      "Ġinnovation": 9278,
      "Ġpartenza": 9279,
      "Ġimb": 9280,
      "giorno": 9281,
      "Ġsurpr": 9282,
      "uty": 9283,
      "Ġpeace": 9284,
      "Ġmira": 9285,
      "iniziativa": 9286,
      "ĠJe": 9287,
      "Ġlimiti": 9288,
      "Ġcompetitive": 9289,
      "egue": 9290,
      "Ġsigns": 9291,
      "Ġwire": 9292,
      "cam": 9293,
      "iger": 9294,
      "Ġcostruire": 9295,
      "Ġrule": 9296,
      "Ġconsumo": 9297,
      "uls": 9298,
      "river": 9299,
      "Ġguests": 9300,
      "cohol": 9301,
      "Ġfuel": 9302,
      "Ġtar": 9303,
      "Ġsfor": 9304,
      "Ġvelo": 9305,
      "posto": 9306,
      "Ġimpegno": 9307,
      "Ġpossibili": 9308,
      "Ġpiena": 9309,
      "Ġscoperta": 9310,
      "Ġconfidence": 9311,
      "Ġdetailed": 9312,
      "Ġrequis": 9313,
      "evi": 9314,
      "ulated": 9315,
      "ĠPalermo": 9316,
      "Ġinsights": 9317,
      "Ġdichiarato": 9318,
      "Ġmart": 9319,
      "Ġglobale": 9320,
      "Ġterzi": 9321,
[...]
